// [DW-CONSTSHIFT] node_conv_854_scale.mem -- CONSTANT-SHIFT format.
// slot[30:0] = mult' = mult << (23 - shift)   (was {shift[21:16], mult[15:0]})
// consumed by node_conv_854.v: v = (biased * mult' + 2^22) >>> 23
// regen: scripts/build_spatial_scale_mems.py (auto-detects the [DW-CONSTSHIFT] RTL marker)
00006F84
00002580
0000376D
00002421
00005638
000018D7
00002BFF
00002AB4
00002617
00002EA6
000076E1
000020ED
00004660
00003215
00002BA0
00002EDF
00002634
00002C4D
0000315E
00006B0D
00003619
0000D0EA
0000330A
00004440
00000E11
00006382
0000489D
00001F1A
0000CDDC
00001A78
00003271
00005DE3
000066B8
000042B0
000033E0
0000530B
00002E7C
00001BEC
00001996
00009354
00003C04
000019DA
0000268A
000064C7
000035A9
00003094
00004710
00001AAF
00002131
00002137
000030C9
0000131E
0000645C
00000E69
00001F74
00007170
000084EC
00002E98
00006919
000026D3
00002871
00002BC8
00004780
0000356D
00002BA1
00003EED
00002EC6
00001D9F
00005E05
0000281C
000055AF
0000193F
00002ACB
0000368C
000063BC
00008CA2
0000391A
00003822
00003A0B
00002801
00002DD3
000033AD
00004FB8
00005D5E
000020A0
0000203E
00004926
00001C9A
00800000
00004FF5
00003802
000026D9
00004672
000048AB
00007727
0000275B
0000102E
0000003B
0000358C
000032AE
000025A4
00003285
00003366
000091F0
00005FE4
00003ECD
000085FC
00002550
00006254
00005959
00000E3C
000032D8
00006E50
00002D5F
00003949
00004450
0000235A
0000577C
00007758
000079C8
00002E16
000042AD
00003513
0000246C
00002F75
000071BA
00004864
00001461
00005FD7
00002DF5
00001022
00004F48
000029E0
0000117F
00002418
00002A07
00005DF1
00003FA2
000027F7
00004A77
000034E4
0000880E
00001D55
0000543C
000030B0
00002931
000130F8
00002A43
00005515
00002C77
00002962
00004BE8
00003681
0000314A
0000728E
00000D12
000027EB
00006119
00003A6E
00006B22
0000220B
00002900
00005DC9
00003AB1
00002E6F
000059DE
0000A0F0
000044D4
00004AB2
00007080
00001C98
0000698F
000020A2
0000348C
000036FB
00006CE0
00002579
00002B1D
00002D01
000069BD
0000312A
00002764
00005B24
0000365D
000054B3
00002198
0000582B
00002302
0000BCDE
0000305C
00003314
0000448D
00004BB0
00003E1B
00006909
00004011
00005D20
00003589
00002D13
00002943
00001210
00003452
000049BC
00004904
000017C5
00001735
00003D13
00002E44
00008D62
0000382E
000025A1
000072A3
00004857
0000296D
000045EE
00007FE7
00006350
00007E83
00002CD7
00003FBA
0000509E
000045AC
000099AA
00001F7E
0000382D
00003435
0000375D
000022F2
00002924
00002446
00005B05
00003EFD
00007E11
00003238
00005073
00002A0C
00005262
00004786
00002991
00002E69
000024CC
00002F9D
000022DE
000026F5
00003CB9
00004F96
00004A67
00002FB1
00004F3F
00009096
000022FD
00001C4F
00001D88
000043CA
00006A8B
00002711
000029B2
00002974
00002E91
00007139
00002C15
00003F50
000019C5
00002BF0
0000E804
000023CF
0000362A
0000384D
000065A4
00003058
00002C1E
00004A88
00004E61
00001504
000023AD
00005E83
00002B40
00002F80
000020A4
00002D19
0000291E
000018C1
00001519
00000EF3
00003ED2
00002567
000027B2
00004CEC
000033A8
00001A86
00001CCB
0000367A
00002944
00004752
00002A58
00002CA2
00004478
00002DA6
00001DB1
00003186
00005040
00003E28
00002F62
000025E1
000030C6
0000324D
000022CC
00005B12
00006AA0
000027BC
00006397
00003397
00002A04
00004712
00004A31
00001F2F
00004232
0000236C
00001BEB
000039EC
00001568
00003713
000040A7
00008502
00002CD6
000045DD
000027FD
00002A47
00004142
0000240D
0000276D
00004D2A
00001E99
00007A48
0000495D
00002F1D
00001639
000043BC
00001519
000026DA
00005B86
00007330
0000B9CE
00005F73
00002329
00002989
00003644
00001691
000018E2
000041CE
00003035
0000710A
000024F0
0000310E
0000377F
00002C4A
00003A1B
00004C12
00004B3C
00005BE4
00006CBF
00005D07
000025F9
00001847
00003A29
00002D47
00005B26
000034EE
000059C5
0000295F
00003EE6
00003351
00005F6B
00001A8B
00006F18
00004752
000045E5
0000271C
00002C55
000030E4
00004264
000041DF
000083FA
000073B4
