0017615F
001750B3
00162A0D
0013033D
00174311
001100FB
001741FB
001631B5
0017595D
00140BBF
00161D23
00140A87
00161159
00174199
00162B19
001733F9
00161261
00172135
001729FD
0016251B
001729EB
00174E43
00174AB5
00162555
00151E31
0011009D
00162809
00161249
001728A1
00162B3B
001747FF
00110175
00176A5F
0017335B
001745EF
00174043
00150C57
00161BE9
00150DFD
00174A9D
00151A9D
001654F3
00150E01
00151557
00131261
00130661
0017483D
0017497F
001761A9
00150F3B
001756EF
00150559
00175ACD
001615C3
001416AB
0015121D
00140BA3
00171F99
00162233
001759C5
00175949
00161599
00176359
0017412D
0017500D
001740FD
00150835
0014046F
00174351
0017710B
0017331D
00174925
00164451
00177A31
001518E5
00176591
00176C13
00163C93
00172C7F
00120295
0014083B
00175859
00141017
00173A4F
00172B01
0017533F
001635CD
001513BF
0017391B
001725B1
00166057
00171671
00174921
0017498B
001729D7
00171BAF
001747F7
001515E5
00162A6D
00172E4F
0017668B
00173851
001773A5
00175F97
00174F07
00140DB5
001645CD
001302CD
00141001
0017408F
00161709
00161215
00163273
00164003
001203BF
0015192F
0017587B
00174185
00173007
001744CD
00175AB9
00151043
001779AB
001509D5
00162CDF
0016662F
00177FF5
00171D65
00172A5B
00174CB3
001727EB
00150F89
00175537
0017222D
00173179
00171A8F
00175B4F
001751D7
00175CBD
00162AFB
00144CC7
00176AD1
00150C9B
001650E7
00171971
00175DD9
0017280D
001409A1
00140C49
0017490B
001616FB
00164545
00172139
0017340B
00151A67
00174685
001728A1
00140555
00177D49
001719DD
00177427
001612C7
00160DE1
00175327
001626EF
00173483
001638C3
00151CD5
00161363
001403FB
00174955
0017159D
00161DC1
001635FB
00162001
001717E3
0017594B
00161159
0014090F
00174BEF
001405CB
00150F7F
00174347
00175F87
001711D3
0017508D
001409F9
00175FE3
001756D1
00161FB5
001624B7
00140535
0017254B
00174A65
00150853
00150F69
00172F11
00175A95
00130599
00176FA9
00173401
001609AB
001718F9
00172CF1
00162DE5
001611D9
00160BA9
00176477
0013042D
001632E7
00150FB5
00176DAF
0016402F
001409AF
00162FAF
0017675F
0017240B
00172A67
00130585
00177521
0015119D
001406EB
001635D7
00173169
00162BD5
00177379
00162CA5
00173D0D
0016106B
00161D3F
001778F1
001733A7
001629C5
00161565
00175F41
00161E8D
00174041
00164B1D
001628B3
0017256F
001620A9
00176197
00174F8D
001413F1
0017541F
00163719
00140A2D
00174257
00140FBB
0017742D
0016234F
001758BF
00130257
0017656D
00174C47
00120125
0015099B
001619A5
0016114B
00176823
0017704B
00174DB5
001627CB
00152B3F
00173B03
001746E7
001644A3
00177463
001309E3
00172799
001753E7
001748B7
0017735D
001616EF
00165DF7
0017465F
00163BE9
0016423B
001518CD
00176307
00161173
0016344D
00174749
00171127
00163FAB
00165D15
001750D9
00150FE3
001749B9
001629F1
00173195
00173E27
00151313
0016769F
00150A11
001710CB
00175995
0016396D
00130667
00163F83
00175F7D
001762C1
001775C7
00150FF3
00140615
00163B43
001756F5
00176FD7
001637F9
0015209D
00174E67
00160A7F
00174BDF
00140A8F
00151925
00151DED
00151383
0016176B
0016298F
00176C9D
001622F3
00163273
00152C0D
00151507
001646E7
00152575
00175C81
001754D9
001748C3
001755E3
00174A8B
0017560F
001619B9
00163603
0016491B
0017263B
00173161
001721A7
00164169
001728E3
001638B9
001752CF
00130913
00172D35
00176BF5
00175DE3
00140ECB
00174B43
001714F3
00151665
00173DCB
00173C91
00172EA5
0016596D
00176C71
0017204B
00150661
00173385
0015157B
00176577
00174769
000F005D
0016692D
00171243
00161849
00140DEB
00174ED3
00163497
0017428D
001610AF
00160FA7
00174A8B
0016164F
00176471
00172749
00173A63
00162639
001303F5
001757FF
00154171
00176761
00176FCD
001517AD
00151309
00120469
001771FD
00150AF1
0016142D
00160D23
00151313
00173469
001201D3
001760ED
001643EB
00000001
00172439
00161D0F
00177047
00162D69
0017377B
001631B7
00162DF7
001723FD
00163463
0017203F
00172FA7
00164265
000C0007
00140EEF
00161FC3
00151801
001636DD
00174013
0017456F
00175007
001644A7
0015191B
0017449F
001610FD
0015104D
00173767
00151ABB
001306D7
00174BD9
001734B5
0015067D
00174911
00171F7B
0017449F
00150447
001619ED
00161231
00151079
0016100F
0015122D
0017513D
001517E7
001744F1
00160C53
0014098D
00161C17
001615EF
00151313
00151433
00161833
00173723
00140331
00160C09
00160915
001736D1
001510B9
00152093
0017572D
001511FF
0017757D
001611F3
0017262D
00151427
00162AA3
00177CDD
0014090F
001523DF
00110077
00162B0D
00164301
00152D7B
001741FD
001768F3
0017478D
001746F9
00173BCF
001762A5
001736CF
001639B5
00151DA5
001513D3
00174EBF
001776DD
00130CA7
001621A1
0016459D
00120149
00130279
001301F5
00161613
00152265
00175795
001510EB
00175CE3
001772D1
00172D4F
0017295F
00162141
001411BD
0015089F
00172D2D
00162DD9
00176C39
0011015F
0016336F
001754F9
00140B99
001632E5
00140CA3
0015400B
00176451
00177765
00160D61
00160F65
00151471
001770F1
0017498F
00150F9D
001626DF
00151741
0014230F
00176131
00151FF5
00150EE7
001644BD
0016241D
001744A5
00175655
0016161D
00163CFD
001404D3
0017720F
001607A3
00171547
00174217
0017663D
00172B8D
00140A99
001408D5
00176219
00161F57
00120159
00171DA9
0017699D
00177C51
00177145
00171A19
001716E1
001512E7
00163059
0017244D
001306DD
001640DB
00150FF7
00141001
0017459F
00140ABB
00177A45
00140CE3
00151337
00150D5D
00173C45
00171043
00130499
001739AD
00150B4B
0013073D
00173F55
00151679
00173B91
001303AF
00175CE5
00171AF9
001756FF
00162845
00140943
001723E1
00151787
001614CF
001616BB
00174AF9
