// [DW-CONSTSHIFT] node_conv_812_scale.mem -- CONSTANT-SHIFT format.
// slot[30:0] = mult' = mult << (23 - shift)   (was {shift[21:16], mult[15:0]})
// consumed by node_conv_812.v: v = (biased * mult' + 2^22) >>> 23
// regen: scripts/build_spatial_scale_mems.py (auto-detects the [DW-CONSTSHIFT] RTL marker)
000020CC
000012B8
00001ACC
00001DF8
000025BA
00006878
000023C2
0000717D
00007EFB
000069F5
000073D5
00002C49
00000D20
00800000
000027AC
00002721
000013BE
000019F5
00001400
00001473
0000A04C
000016DF
00001D24
00001281
000018EA
0000679A
000017F9
00007CA6
00002045
00800000
00005626
00001DE3
