001534B9
00174657
00174341
00173599
00120523
00151323
001664B3
00150C63
00176265
00162F9B
00177B3F
00175671
001303B3
00175169
0016616F
00100A93
0017561D
00165EC7
0017366F
00161ED1
00174EA9
00174213
001654D3
00175A95
0014066D
00130BAD
00141B91
00164909
00162C51
00150E7F
00174935
0016166B
00176B17
00174121
00173AC3
00140ADB
0013046F
00174CEF
001104EF
00175615
00151CA9
00140A1D
00163FB5
00162283
00174833
0013067D
0016208B
001524D1
00165F95
001203A7
00174D4B
00141C05
001748A1
00161FC1
00161E3F
0017365F
00171E7D
0015244D
00165CB1
00163DF3
0017369F
00150F53
00141BA3
00161F11
00177C99
00173A63
001626F1
001626C1
001757A9
00177187
00175257
00173573
0014083B
00163B1B
0012062F
0017406F
00176DF9
00154941
00167DA7
00173839
00162989
001754A1
0017772D
00151AA5
00163983
00151FF7
00172F43
00120E2B
00173227
00153109
00165ADF
001522DF
00150F4B
00160BBF
00173D2D
0017786F
00164E8D
00140F4F
001547D3
00160DE3
0016584D
001625AD
00141059
001511EF
00176F5D
00166D49
00177681
00152D33
00153621
00130499
00164003
00173AA7
00160DCD
00172E7F
00163409
001401EF
00130D63
001622C5
00174867
001418E7
00140D07
00176255
001740DB
0017778D
00173AEF
001743B1
001635CF
00141143
0015338F
00166E55
00173BA7
00175801
0016248D
00141597
00155BC5
00160EA1
00151229
001729EF
00162AA1
0016553D
001776D7
00165421
00164849
00120A9B
0017709B
0017506F
00161483
00150BDF
00152E33
00130AD9
00174945
00152831
000D001D
00163717
00162BBD
00161CAB
00165DED
0017311B
00153B83
00174BC9
001414D5
0016148B
0017215B
00141317
0017467B
00175C65
001457A7
00164921
00164FA9
001625FD
00161BEF
00160897
00173C75
001617A3
001739CF
00161453
00161BC9
00175FEF
0016349B
00162453
00130469
00174255
00130DD7
00153D7F
001669D7
0016684B
00151477
00174ABF
00174613
0017481D
00174067
00172779
