// [DW-CONSTSHIFT] node_conv_830_scale.mem -- CONSTANT-SHIFT format.
// slot[30:0] = mult' = mult << (23 - shift)   (was {shift[21:16], mult[15:0]})
// consumed by node_conv_830.v: v = (biased * mult' + 2^22) >>> 23
// regen: scripts/build_spatial_scale_mems.py (auto-detects the [DW-CONSTSHIFT] RTL marker)
00002AE0
00005CD5
00003531
000021C1
0000235F
000028ED
0000391D
00001A82
0000392B
00001093
00004D11
00001DB8
00001999
00002CBE
000027BC
00001B21
00003983
000021F2
0000208D
00003244
00002843
000038A3
00005915
00002B9F
0000376F
00001BAA
00002DE1
00003E4A
0000345F
00002CC2
000043F1
00004B35
00002606
00002DA6
00002CC0
00005C1B
000084D6
000031BF
00002F57
00004B37
000041AF
00008244
00003232
000016ED
00004632
000019AB
00003446
000031B0
000040B3
00004784
00004EFB
000060CE
00001B6A
00004277
00002BB2
000025D0
00003D76
000024FB
00001E59
00004A5C
0000287E
00001809
000030A5
00003F44
000027D7
00002752
000074DF
00005D52
0000303E
0000C076
0000495C
000038B9
00004312
000021C2
00002F68
000028D5
000018D6
00005479
00003602
000089A8
000037F3
000025E1
00002C47
000030E8
00002CA7
00003BC0
000029B7
00002D7D
00001ECC
00003E83
00002AC9
00005627
00003939
000024F7
000025D0
00002EB3
000019ED
000016FD
00004A55
0000622E
000035CE
00003764
00001677
00001CDA
00002430
000053DF
00001ABE
000021DF
00003571
000020F3
0000204D
00003740
00002562
00002F60
00001796
00002974
00002B34
0000200F
00002F2B
00006709
00008DAE
0000D1D8
00002FB3
00003463
000018E7
000048FE
00001DA5
00002961
0000397D
00001E9C
00001C86
00004014
000040BD
000027F3
00001E36
00002295
00002DEA
000067F6
00002047
00001E4E
00001CD6
00002C14
000028BA
000024E5
