00142D0F
001769DF
0017767F
0016400B
0010006B
001521A3
00175FAD
001636A9
00164123
0016384D
001513F1
00152085
00165C9D
001202A3
001749F5
00161973
0015254D
00163C29
0017406F
00140D73
00141151
00171047
00154C69
00171F9F
00177CF3
00120511
00150FB5
001410CD
0015157B
001626CF
001643C3
001506AB
00162FF9
00150A31
0012030F
00152F9F
00163111
001409E5
00172D87
00162D31
00141009
001510F9
001731A1
001732DD
00161C47
001755E1
00176655
001656A7
00162F01
00176047
00173107
001777FB
0017320D
00165A71
001715A5
0015272D
001613A3
0015082B
00151C87
001611D5
0013088B
0011019B
0016376D
00171947
00162161
001515AB
000F006D
0013148B
001100E9
000C0007
001418F9
001626D7
00174BE9
00172FE1
001635A3
001735F3
001415C1
00164BDB
00150E3D
00172EA5
0016307F
001756CB
00150A49
001613E9
00172A79
001306D9
00176115
00163689
0017292B
00165891
00120239
00174813
0012046B
001647CF
001000FF
0014105D
00173585
00141843
00162C89
00151353
00161AF7
0016268D
00162D4F
00174E75
00163011
00173D4D
00140C85
00177ED7
00167197
00162FE7
001305C3
00161CFF
00174995
001522D9
001659A3
00140B91
00152697
0016757D
00120265
00165CBF
00161D01
00150725
00173387
0016290B
001622EB
00150353
00172265
00175337
0016582D
00165F05
00140A2B
00141133
0017661D
00174F09
00161A0F
001616DF
0013055F
00150891
00150CB9
00153B63
001739BF
00175AF7
00151193
00171A7B
00160C43
00163631
00152B95
0017437D
00165655
00161C35
00130E01
00150EEF
001652DB
00174A35
00174139
00152B2B
001413E1
00163A1F
001516DD
00173A17
00163D6D
00161BF7
00163D7D
001643BB
001101C7
00164AEB
00161663
00151DAF
001755D9
00173D6D
000E004D
00164C31
00151D53
001403A5
001532A3
0014086F
001741E9
00152F33
00161F25
00164AA3
00110345
00167DBD
00175033
00163AE5
000D0011
00165121
001767FB
00176E2F
00120103
00173FE5
00175A8B
001307A5
