00131965
00166E4F
00167AAD
001412CF
00161E8F
00152E3F
00131387
001663D1
00151613
001205A7
001532AF
001534AF
00152F53
00151639
0016516F
00164B1B
0016526D
00141A49
00162275
00140665
001410ED
00166943
00130993
00164297
0015332D
00165CD5
0016556D
00165A49
00156E81
00175CD1
00172217
001651C9
001527FD
00177CF1
0017482F
001527C7
001662FD
00153139
001306E5
00152CE9
0011020B
00165771
00163BCB
0013087F
00177BF9
001420AB
00172E3F
001418DD
00144E77
00153E89
00141877
00130BED
001773F9
00163CD9
001203B3
00166F57
00157FD3
0017607B
00176263
001526C7
00164815
00163335
00152D69
00167351
00167621
00176C03
00141A8D
0013078B
00141227
00141601
00141A35
001649C1
001417C3
001779B1
00166075
001514B1
00152A1F
00140D99
00167359
0011043F
00165467
0017637F
00152719
001520D3
0016373D
001204BB
00152375
00167891
001540F7
001552C7
001514FF
00155533
00174677
001306E3
001653D5
00140A9B
00166A3B
00151D8D
00166EE5
00172ED9
00130F0D
00152313
001418ED
00177393
00164D2F
00176C29
0015260F
00166BE9
00154E7D
0014231F
00161CA1
00166161
00142647
0016461F
00167211
001768A7
001421BF
00165075
00140EDB
00110331
0016302D
00130A41
001677D5
00167387
00151BF5
001653F1
00130A87
00164749
001657DB
001309AF
00130865
00165713
00164035
00176643
00153589
00176433
00142623
001529EF
00141ED7
00177687
00151A09
001735B1
001672C1
00164EB3
00163679
001657B9
00166C67
001668CD
00154293
00151735
000F00C9
00100165
00176B8B
00162803
00153DB7
0016514B
00167869
001676F1
00166087
00164CAD
00120857
00162D45
00154DC1
00175EF5
00151AD9
00151349
001417C7
001662E1
00165223
00142177
00175253
00152D27
001656A7
00165077
0016334D
00153F75
00164827
001413E7
001779D5
00163F3B
001651D1
00164B41
00130693
001675CD
0015175F
0016507F
00153C57
00166DBF
001770EF
0011020D
000D0031
00110355
00141977
00154E17
001649BB
00173AFB
00155031
001670EF
00154D91
00152F3B
00142E91
00163AF9
00153D41
00173D4D
0015206F
0016717D
001521AB
00165835
00130579
00167247
0016753D
0014093D
00161993
001652AB
001756C1
001204C3
00152E23
00154891
001646BB
001102EF
00153E71
001653EF
00130AEB
00152151
00152019
00140F7B
00175E0B
00141C13
00120829
00152879
00173BC7
0012032F
00151B2F
0016481F
00153543
00161E05
00173039
0017756F
00120817
001653AD
001772F9
00174E25
00163421
0015267B
00143E87
00163AC1
00177B0B
00140605
00173B31
00141201
001652FF
001426AF
00110231
0015305F
001533D1
00166641
001418B9
0015482B
00130CCB
001646C9
00154427
00177C6D
001632D1
00163793
001532DF
0016550F
0016497F
00164EF1
00131403
00141CDB
00151717
00176BFF
0016306B
00173223
00165289
00151783
00142FB9
0017548D
00130751
001677D7
00141371
00176B3B
00140A51
00152F1D
001410D5
0013161D
00152F81
0016551B
00174FA9
00165217
0016381F
0014166D
001203C9
001541D9
00152AC1
0013144D
00154015
00162A11
00173DD1
00151F6F
00172995
0012082D
00173F7B
00164C6F
001411C3
001202B7
00162E2F
0016473F
0016675F
00152785
001573A1
00164ACB
00167193
00172FED
001661E1
00165307
00153FE5
00161883
001418FD
00142629
00176F75
00140CDD
00130AA5
00164F0D
001531DF
00152C39
0012030D
001409BF
00166597
00176113
001423BF
001423F3
00166CE7
001640E5
00140F4B
00141A37
00154FBB
001524CD
001416E7
00177CF1
0016514F
00167EF3
001776D3
001761E5
00130609
001414E1
00152C1D
00164957
00151591
00152B15
00176FB3
00163D7F
0016306B
00176E31
00141475
001758A5
00153AF3
0016488F
001759B7
00175BDF
0014267D
00176C2B
001206FB
00175021
001428D5
0015130B
001412DF
00164B3D
001201FB
0015289D
00110195
001552ED
00167039
0013063F
00141C43
00173867
001655C7
0015500D
00154203
00152D77
001418B7
00151EDB
00164515
00165EA3
00153283
001739F9
00120681
00130467
0016590F
001521E9
00140859
00177685
0016354B
00141C91
00165A59
00164A4D
00164829
00167AC5
001653D7
00164103
00152767
00153991
00151585
00130A55
00152F3B
00142613
001649CB
00165A5F
00144791
00165B0D
00164823
001423AB
001518E7
00120873
0015388F
001639C5
001309F9
00175A2D
00175637
00152265
00163D75
001659A7
0017721D
00174B25
00165617
00172931
0017710F
00130735
0014119F
00141C0B
001652D1
00152535
00165549
00162AE9
00152729
001201C7
001412C9
0014131F
00175AE5
00140E2F
00163E0B
00153B81
00174E31
001415E3
001655F9
0014157F
00176793
00165345
001666B9
00155B55
00165BB3
00141647
001534D9
001725F3
0015378B
00141F97
0014155B
0016473B
00164F07
0014197B
00154DFD
00165EBD
00166051
00177307
00165A2B
00172761
00120403
00120179
001741DD
001756AD
001419D7
00165493
00140ED1
00130CAF
0016565B
001422B7
00164813
001755A1
00177989
00165953
00150E49
001435CD
001315BF
001312B7
000F00B9
00176867
001527ED
00130FE3
00161BF3
00167251
00140D4B
00161EF7
00177A0F
00167A71
001621E3
00175433
001775AD
001654AB
001755B1
00142139
0016367D
001671CD
00120AD1
00165871
00153039
00163F87
00120653
0010069B
0016531F
001659A5
0016624B
00173A5F
001655A3
00163065
0014080B
00141CE7
0017477B
00164059
00165289
001650B1
00161D8F
00164CDB
001527CF
00163DCB
00154859
0015531D
00140EF5
001312A3
00177BFF
0014341F
00164C29
00166615
000E00D3
00167CDB
001621F1
0016482F
00166AC1
00167B1D
00167623
00150F31
00166273
00164A95
00161E81
00153EB7
00100133
00155425
00157B33
0012052B
0016189F
0016580B
001439F1
0016415B
00155141
00151953
00165F89
00153425
00175E8F
0015267D
00166B6B
00167489
00165B05
001536F3
001416CB
00152FA3
00173D05
00153BD3
001673AB
00175C69
00165979
0015255B
0016264B
0017562D
0016637D
00163CFF
00166F8B
00166FB7
