00175057
00177231
00167683
00166B27
00141BED
0015374B
00152A5D
0016352D
001665F9
0017560B
00153893
001626B3
00151169
00155011
00153A61
00164CA9
00173977
001418D5
001422F7
00147D05
00152BF3
001311B1
00176079
00166539
0016703B
00166999
00161427
001534C5
00154483
00141863
00153D43
00142B9D
00152A5D
001410CF
00162B2B
00164D83
0015392F
00172FF9
0015445B
001545A1
00155CD9
00164BED
00130C51
0015386B
001527EF
00172883
00166D75
0015357F
0017378F
001626EB
00173325
00152C31
0017630D
001543AB
001535CD
00166D7F
00165755
00152D65
00167009
0014193D
001771D5
0016641F
0015117D
00174501
0013155F
001670C9
00162499
00165A7B
00141FC1
00151E19
00164771
00166C39
0017502B
000F00D9
00167B53
001644EF
00173ECD
00130C97
0016577B
00153303
00166C3F
001738F3
00152C8D
0015442F
00167919
00164155
00152CD3
00152FDF
00152B6D
00154F37
001679BD
0016685B
0015352B
00176A99
001204F1
00174E65
00162FA3
00166F95
001419FD
001652F7
00166165
00142249
001541A7
00152EB1
001540FB
0017678F
00176B63
001413A7
00153167
001413BB
00166F45
00153D57
0016577B
0012061D
0014101F
0015321D
00164F09
00162775
00165447
001529BB
00150D17
00166C5D
0015205D
00164319
001563C1
00173875
0015188D
0016737F
00110617
00166871
0012068F
00131259
00167B43
00162FF1
00167239
0017684B
0016672B
001753AD
001665C7
00166A45
00166CE7
001666B7
001748A3
00167549
001669B9
00154587
001650F9
00164279
00167FBD
00120453
00174B07
0016580F
00152691
00166AF1
00175C43
00153125
00130BED
00162D63
00166697
00130381
00141A1B
0016443B
00152D3F
00167741
001101AF
0014136F
00152073
0016648D
00176C3D
00152C6D
00167CBB
00165AED
00130381
00130E51
001419E9
00163F5B
00166A97
0016376F
00156CBB
00151F6B
00173FB1
001528F5
001541F5
00152487
00120657
0012018D
001675DF
00167EED
001750A9
00120959
00140A3F
001641E3
001751F9
00165EF9
00150E59
001655A3
0016456B
001675F7
00141F63
00167F25
0014182F
00177FD9
00162C6B
0016603F
00176509
001308B5
001520BB
00152AAD
001659F5
00166A19
00176781
00167C3F
00175EF5
00100147
00152E5F
00153B05
00151497
00173A21
00152DE5
001661B1
0014177D
00130883
00163A0F
00165735
00165C23
001771E7
0015411B
00141721
00165CAB
00152837
0015228D
00142383
001662EB
00141D33
001668CB
00120525
00167233
001668AF
00152061
00174ACB
00162D15
0012062D
00167F95
00141615
001533D5
001667CD
0017301F
0015424D
001530D5
001648E7
00165A8D
00165499
00156B7F
00152F69
00166751
00153549
001420F9
00151AE5
00167CF9
001657E7
0016731F
00154921
00153E87
00174189
00176295
00164BA5
00174839
00177E19
00165B73
00167DA5
00166B79
00142AD5
00164CFD
0014174F
00154BBB
001733CB
00166497
00153B3B
0011025B
00167331
001443A5
0010006F
001312E3
00166D17
0016339D
00167D8F
00167795
00173FAB
001644EF
0014537D
00162365
001645E1
00130CF3
0016434D
0014143B
00164917
0017671F
00120355
00176BFB
00167741
00167551
00164397
001620B3
00140D7D
00130CE9
00164F13
0016612D
00141875
00153553
001545BD
001530B3
00165139
001304F5
001508C5
00120891
001418C1
00153D8F
00164DBB
001643B5
00165959
001653A5
00154935
00141B03
0016780B
00153459
00167C8B
001658CD
00164973
00165499
00177257
001658AB
00141BB1
0016398D
000E0061
00176281
00165F7D
00153583
00152CC5
00120817
00163AB3
001677BF
00165EAD
0015241D
00165473
00164A6B
0015346B
001405E7
00152F35
00166885
0016670B
001745F3
0017527F
001315AB
00150F25
00130A8B
00122B01
001535EB
00166EE7
00166645
00130F6F
00120A67
00167821
001670AD
00110349
00154395
00175DE3
00152431
001525A1
00142971
00167049
00142225
00167B77
00165AC7
001740D5
00165431
00156049
00153F77
00153B7D
0016681F
00120679
001754FF
001762A1
00154197
00143C83
