00177D49
00152255
00165A5F
00174A5D
00154AB9
00141051
00143359
00152209
001733FF
00150E79
0015215D
00176B4B
00163933
0015243F
00141687
0014295B
00177315
001743E9
00164995
0014195D
00164635
00153B2F
001103A3
00151955
00175525
0014065F
00172D47
0012056D
00165A45
00141A41
0015372B
00166F2B
00100287
00151D7D
001645A3
00163C9D
00131185
00166CEF
00154043
00164339
00140DB7
001668AB
00166BB9
0016261B
00140C3F
0015239D
00140FD5
00154555
00167F05
001417D9
00154CC3
001529D1
001766F1
0017662B
0015228B
00165465
00164B99
00142B11
0015531D
00177CAB
0016585B
0013116B
001633BB
00164E09
00155683
001759D9
00165BEF
00143D2B
00152747
00176D23
001678CF
00163B63
001658D9
0016709F
0014131B
00152021
0016390D
001668BB
00177BC9
00175C65
00150BE5
00163681
00152E33
00152063
00161695
00120539
0014068F
001418DD
001756A7
00176865
001657E9
00154A39
0016499D
00163931
00142513
00166041
00141AC3
00120997
001308D9
00151BB5
0015344B
0016405B
00150D83
00164BEF
001564DB
0014097B
0016432F
00155A03
00175C0F
00161A5B
00164681
0015238F
00100295
00120841
001520D1
0015264F
0017798F
00165447
00173555
0015342B
00164691
00167C09
00153585
00164323
00155BC1
001752F5
00174855
001770F5
00130A13
00151FE3
0016268B
001417BD
001570A5
00174111
00152267
00166CFB
001661E3
0017599B
0016653F
00161D99
001101D3
0015588F
00154B21
00154C87
001621DB
001731A3
001663CF
0016603B
001203F1
00164C07
00152ABF
00142441
0014228D
00164143
00164865
001526C5
0014260D
00141143
001521B1
00120511
0016655B
001662E3
00140B25
00166241
00166567
001758E3
001104E5
00172BA5
0016684F
0015442F
00165A19
00163C1D
00140B9F
00141F5D
00173DB9
00161DE7
00130613
00165BF7
00130B47
0015325D
001528E3
00162D6D
00141209
0013138B
00164007
00175AC9
00177DD7
0014104B
00167449
0015400B
0014150D
001548BB
00167E6D
00161F57
00153397
00161B0F
0016269D
00152C37
00166215
001646AB
0014410D
0014126B
00165CDD
00140C47
00176915
0016703F
00130CA9
00142305
00177421
00140E4B
00162D37
001520E7
001528BD
00176463
00141401
0016548B
00166EF5
00130D63
001422A7
001411B9
00174607
00165D47
0017738F
00142C31
00167B0B
0015231B
0011021B
001646EF
001514C5
00153023
00167113
0015757B
00153C1F
00175D2F
00164207
00141415
001731DB
001753DD
00174049
0016485B
00110455
00153B53
001446B5
001414B9
001762C3
00173FC3
001532AB
00164C41
001542A9
0016581B
001416A5
001767CF
001307C9
00164E2B
001659F1
00140C6D
001528DF
00164363
0015222D
001643DF
00164AC1
001517E1
001428F1
001730B1
00177A3B
00130ED3
001523A7
00173D59
00163C5D
00172C01
0015234B
00164AFD
00130757
001409C5
00174815
00000001
001100AF
00151701
00176C5D
0016662D
0014491F
00174FD5
001745C3
00152083
001521E5
00164DA9
00142107
001527F3
001422D9
000F01AF
00162D79
001517E1
00140C91
00130EE3
00175EB9
001520E1
00161941
0014164F
0016627B
00174105
00162807
0016492F
0016611B
0015481F
00153657
00177205
00164823
00165C7D
00162CA5
00162F5B
00154053
00176405
00165D05
0015323B
00175405
00164C77
00163FDF
00151D79
00167295
0012033D
00165287
00156357
001664E7
00163FF1
00164BD5
00110171
0016582B
00164AE9
00175D49
001528EF
0016292B
00130A3B
00152A0F
001540C9
0011024B
00164529
001611C3
0017688D
00154613
00163589
00000001
00163FA3
0015101D
00154595
0016765B
00100129
001547D1
00174183
0015399B
001309CB
00162BBB
00141831
00140F07
001647FF
00153205
00143943
0014114B
0016549F
0012015F
00162B19
001413C7
0017401F
001662E9
00141B25
00165461
001418ED
001647C1
001768C3
00165881
00175523
0016411F
00163697
00152031
001209FD
00131221
00177115
00120527
00131A55
0013078B
00162BE7
00166967
0014174F
0015447F
00173CCD
0014122F
00164271
001677B9
00130D69
0015331B
00162D2D
0017627D
00175137
00152A9F
001514F5
00130697
001651C5
00151A01
001638DD
0017447D
0016119D
0016603B
00140E0B
0014154D
00151B65
00141B5F
00177AB9
001672A9
00152C17
0015302B
001652AF
00154095
001525C7
00176761
00166413
001626FF
001454E3
00164D43
001657B7
00130327
00141BB5
00165F15
00166B27
00177CAB
00162ED3
00177083
001640D3
001662B7
00172F41
00152DD3
00151581
00150B83
00177F0D
00162DE1
0015230F
0017766B
0014061D
00164E79
0014193F
0016459B
00173E69
00141E6F
00141D43
00161F1D
001423F5
00164D75
001527E9
0017462D
001311D3
00175B47
001307ED
001650C7
0016574D
00152BCB
00141A85
00131D19
00162DC3
00166D63
00153B75
001678CB
00163757
00131297
00176455
00000001
001632D3
001563A5
001726F3
0015284B
0016297B
001542D5
00154AF1
001767F1
00166E8D
00176DB5
00131497
0016454B
00151B3D
00163B81
00162627
001654CF
00141189
001520CF
00165675
00177D3D
001001A3
00140761
00175F55
00161FB9
00152111
0017561F
0016349B
00154A37
00173681
0017318B
00162E7B
00161857
00173081
00167815
0016355F
0017788F
001676C9
00164813
0016707B
00165323
00174F65
00162855
001525AD
0015397D
00152FE3
001654DD
001307A7
00165AC7
001525FD
00165347
0015211D
0017401B
00141BC1
00162C49
0015374B
00176147
001410D1
00120421
00177391
00173FAF
00164FB3
00164193
00163961
00152B9F
00176077
00151D1B
00154497
00140D15
00142265
0015401D
00154A21
0015437D
00165361
00157DA7
0016547D
00163C27
00152311
0016322D
00153903
00120771
00141A5D
001413E5
00166F61
00120EBB
00163A7B
0014135D
00163049
00166D97
00171FFB
00120621
0016781F
00164D87
00130BA9
00153C05
00154C95
001768EB
001648BF
00155D01
00166C45
00141C2B
00130B03
00130C97
00165FD1
00177C7B
00165557
0010014F
00151EC7
00130837
00130CCF
00165E1B
00165383
00166325
00153B65
00174BC7
00173941
00154333
0014140D
0017590F
00120919
00163F87
001511C7
00165793
00166E41
00172A05
00164C73
00162EEF
00151F55
00153741
0014202D
00141787
00130BEF
0017503D
001638BD
001773FF
001208E7
00162893
00164615
001529F9
00141363
00163655
00154D67
00166071
00152725
00157BA3
00165AF3
00162373
00166E83
00162FA9
0017303F
00161F7D
00164169
0014139F
00120491
00154011
001413F7
0016570F
00177B6F
0016359B
00173EB5
00152AA3
001761EF
001627F1
001416FF
0016360D
00163643
00165E69
00130875
00176D79
001646D9
00164971
00164D1B
00162003
0013084F
00164E29
00164B31
00167D85
00172AC5
0017391B
00166549
001522C1
00120263
00152B6F
00167BF5
00173F61
00153189
0016693B
00130AEF
0016154F
001639AF
00152667
0012036D
000F00A5
0017764B
001665E7
00176FCB
00164831
00162FD5
001676A3
0014310D
001627E7
00165527
00164245
00177C2D
00141373
001641A1
001648E1
00152907
00110163
00152601
00152D37
00120677
0016408B
00140639
0017422D
00176911
0016663D
00152647
00141013
0015154B
00120627
00176D9F
00164665
00164675
00175D6D
00140B3B
00161D89
001754B7
00131545
00151209
00152DBB
00152623
00120847
00162BE1
00163EF1
00153DBF
00161A29
0017672B
00152D5D
001621DB
00151471
00163409
0015378B
00165C0D
00163013
00152A41
001520C3
00172DAB
00153147
00166AA7
00177517
00154D3F
001761C7
0016649B
00176FD9
001753C3
00142E17
00131957
00154E57
00153829
00177899
00130705
00161CE1
0015563D
00153BAB
001412BB
00177FEB
001421BF
001558FF
00175C27
00161549
001728AF
00157865
00152BDD
001642C5
0017646F
0014133B
001659A3
00163AB5
00167B5D
00155177
0012101B
001419F3
00140F3F
001776E5
001414E5
00165D61
000F00A9
00152921
00100353
0014071F
001527A5
0016262D
00152493
00176C4B
00177741
00141597
001546B7
0017547D
00120473
0017477B
00130C7F
00151B03
00164A41
001632D5
00177107
0015419D
0014159F
0017625D
00175DA9
00141219
001613A5
0015299F
001765F1
00165B05
00165C01
00166F9B
00176071
0016633F
0015094D
00176E51
00151ABD
00152E9F
00177EA3
001556E5
00165639
00151CAD
00167699
00130635
00177907
001311B9
0015402D
001665C3
0016792F
00175C57
001652A1
00165C17
00177EA1
00175F57
00164BFF
00175FA1
001646A7
001405AF
0015164D
001757B5
0014151D
00152737
001543DF
00154AD3
00165ACF
00153EC5
00174061
00167EB3
001427AF
00154915
00152393
0016771B
0016698B
00165E89
0016444B
00142AA7
00165B83
0015167B
00177851
00165175
0015259D
00172D53
0014125B
001540E5
00161827
001647DF
00161801
00163A2B
001759BF
00165F9B
00130767
001617AD
001525A1
0016353F
0017695F
00155447
00141FB9
00176CB5
00177BF9
00152E73
00175C55
0016605F
00153909
00151071
00165A9B
0016584F
00153F11
00166705
00164203
00165A7B
00177F91
00162441
00130F15
001623E9
00164C4D
00164D25
00120663
0015331B
00132547
00153313
001413BB
0014541D
00162EBD
00152C95
00177539
00155E1F
001612B3
00142B1D
0014201D
00150FB5
0012060D
0016544F
00110201
00130919
001428D9
00166723
00177197
0010025D
001624EF
001102FB
001623DF
00120315
001407C9
00164991
00167D31
001772D5
001659AD
00175C3F
001201F7
00132FF3
00164A61
00140E71
00154A4F
00164893
0016537B
00167DC9
00140A9F
00142DBF
00153FEF
00163961
001639D7
00177CD1
00130859
001104D1
00120C89
0015262D
0014294B
0016333F
00141EC3
001666D1
00151A73
00162D15
00165A6B
00163BDD
00152377
0012088B
00144281
001775E1
0016663D
00162A91
00164355
00152EC7
00140C6D
001564FF
0017314D
00167105
00141BFB
0016241D
00164E4F
0012091D
0011040B
00162C23
001672D7
00175D1D
001534BB
00161DD1
00162219
00177931
001308CF
00153269
0016602D
001655D7
0015261D
00176107
001526B5
001518A9
0012035F
001529F1
0017374D
001629D9
00172A73
00175053
00154311
