// [DW-CONSTSHIFT] node_conv_908_scale.mem -- CONSTANT-SHIFT format.
// slot[30:0] = mult' = mult << (23 - shift)   (was {shift[21:16], mult[15:0]})
// consumed by node_conv_908.v: v = (biased * mult' + 2^22) >>> 23
// regen: scripts/build_spatial_scale_mems.py (auto-detects the [DW-CONSTSHIFT] RTL marker)
00001BEC
0000386D
0000751A
0000253F
000036CA
00002EDB
000016E3
000039FC
00002C75
00003F12
00001BE6
00001C5B
00001881
00004B41
00003774
00005FB5
00001DBE
0000187A
00006279
00001FF1
00002FBA
00002213
000066E1
000012B6
0000196A
00002578
00002123
00002B90
00003261
000063B8
00002024
00005231
00004B17
00003177
00003595
00002D2C
00001B2C
00001C6C
00005F6A
00003FCD
00003785
00001BB1
00002D6C
00001A8B
0000185C
00002777
00001A9C
0000345D
00001007
00003EA9
000035CC
00001D56
000087E4
00003E51
00004714
00003DD6
00005919
00006242
00002F68
00003B79
00001EF0
00002486
000022EB
00002DF0
00003DBD
00001B28
00002138
000022E3
000035EE
00003061
0000681C
0000284D
000058E4
00008692
00002715
00002D8D
00002861
000025B5
000042C0
00001DB4
00001EB7
000016F8
000049B4
00003511
000031D0
00002D61
00001D80
000028DB
00002243
00001ABF
00002657
00003EC3
00002A17
000017FA
00006A64
00004B49
00004B63
00003214
000035B5
000057C8
0000176C
000022F6
00001C79
00002A87
00004E8B
00001848
00004AA1
00002415
0000197C
00002633
0000479B
0000134A
000019A1
000034A9
000056B5
00002889
0000256D
00001B16
00001BB2
00003780
00001D49
00001B32
000019F5
00001774
00003947
000038D6
00002040
00002728
000041A1
00004A69
00002406
00002C39
00002DBB
00005622
000039BC
00001965
000049E9
000057C3
00001BAD
00001E6C
0000380B
00001F0D
0000134D
00002AC4
00005D61
00001758
00004290
000016E7
00006AB6
00001A5E
000081DE
0000203F
00006957
00002E1F
00005941
0000174C
00001B81
00002BAB
00003F6B
00003AAE
00001E71
00002F09
00006445
000043C3
00003225
00001CAE
00008224
0000238E
0000500C
0000223B
00003F1B
00001627
00004149
000066D6
000056B9
000053B4
0000302F
00001CBC
00001E08
00002D48
0000406E
00002113
00001A76
00003934
000012C5
000037AF
000038DC
0000383C
00004D1C
00003F60
000078EC
000033BA
00003072
00003C89
00002690
0000160E
00001E19
00002365
00001BD6
00004D36
0000320F
000051D9
00005692
000029C8
000027F0
000032B7
0000259A
000043E6
000038B5
00001990
00003A56
0000331D
00004344
00002C36
000032B8
00003C6C
00002120
00001E32
00005388
00005A32
00003F31
00003B1D
000038C4
0000360A
00001E8E
00001E31
00002AB6
00002666
00003104
00003710
00003AA1
00005259
0000205A
00001EBD
0000152F
00001F39
00002AD4
00003BAF
000041DB
0000319E
0000210C
00004631
00003D43
0000166D
00002657
00001B9E
00004AA9
0000583B
000018EF
00002B4E
00001CFD
00002B06
00002CB8
00004FDB
00003682
00006DE7
00001D29
00001C37
000013C8
00001C90
00003889
0000265A
000052CA
0000193D
00002144
00004742
00002CC7
00002E38
000016AD
00001B61
000018E0
00003FDA
00005D08
00001941
000035AC
00003428
0000768D
00001EEE
00004076
000026B9
00001C62
00001CF4
00001F83
00001B42
000016A6
00003F17
00001F77
0000284B
00005909
00002982
0000140E
00002FEE
00005583
00003436
00004C3C
00003C93
0000367F
00003F73
00004589
000022DF
0000172D
00002B5B
000052B5
0000329D
00001016
00003F5C
000050A2
00003429
00003DD3
00002A7F
00004351
00003BD3
000036BA
0000263F
00003D93
00001C18
00001E03
0000224E
00003731
000027CF
00005E63
00002AF3
00004030
00004666
00001A3E
000037EC
00002F13
00001C49
000029BA
000020A1
00002075
000038B2
0000189E
00002442
0000170A
00003D8B
0000376E
00005C01
00001C01
00001EC0
00003A60
00002B09
000024AD
000054BB
000048D1
00001F36
00005719
00001772
0000759F
000037C2
0000672A
0000182F
000029FE
00002626
00001AB3
000038C8
00001BAB
00002C4A
00001C45
00002A2B
0000562B
000039CF
00002EED
00004053
0000175A
00002ADE
0000166F
00001AFC
0000199A
00001E47
00001EED
00006120
0000153A
0000515A
00004919
0000308A
000022F0
00003292
00002392
0000411E
00005F13
00001B71
00003591
00006D07
00003872
0000462F
00004825
0000484C
00004138
00002D05
00001DC1
00001A05
0000289B
0000213D
00006798
000026CF
00005E0B
00001B62
00002DE1
000031C4
00001F32
00002B03
000033A3
00005CF6
00001B5E
0000407D
00002104
00003638
00001D57
00004377
000019E9
000037F7
00007D4F
00006A20
00001B59
00002392
00001D08
00002085
000037C5
00005A03
00002320
000029A6
00001C22
00001B37
00002B2B
00003A15
00001893
000058ED
00002C9D
00005829
000017DE
00001A48
000020C1
000023CB
0000176B
0000376C
00001D14
00001F78
00005AC3
000016EA
00003433
000046EF
00003A47
00003537
00001AC7
0000121B
000018F2
00001AC7
00003F0E
0000327A
000031A2
0000194F
0000162C
00001811
00001BF6
00002E98
00001D8A
00001C55
00007652
00001D13
0000377A
000026D8
00001BC1
000044C1
000029E5
00004067
00001CC7
00004D4B
00003A46
00001BAA
00003D79
000013FC
00003AAE
00001AD5
00004E13
000021C1
00002052
00001AB3
00002AB3
00002CFD
00004110
00006274
00005EE0
00001A2A
000032D5
00001BF3
000019BB
00003299
00001451
000035BD
00002E8D
000012CB
00002EAE
0000527A
000041D8
0000221F
00003A0F
000019AE
000061A8
00001A9D
0000426C
00001620
00002CD3
000034F9
0000480B
000032C0
00001841
00004734
00001E36
000048D8
00001A2A
00003B2A
0000CE02
00002F8F
00001F6C
000052E5
000048B3
0000190C
00002102
000037DB
00001710
00005180
00002DC0
00002E3E
00002E40
00001491
000021DD
00001848
0000475A
00002ABD
000034E4
0000723A
00003FAD
000033D4
00003C01
00001C5E
00001ABE
000019C7
00002510
000022B2
00002D4A
00003F87
00003EFC
00001D33
000054D7
00002BF3
00001B41
000019E2
0000245F
000036AC
00003BA4
00001295
000029DE
000041F0
00003A62
0000614C
00003546
00002283
00003179
0000237A
00001813
00001E05
00001366
0000158C
00001C96
00003B07
00001C0C
00001B5F
0000326B
00002215
0000342A
00002250
00003090
000044AB
000020F1
00004809
00001986
00002410
00008410
00004DDB
00001F89
00001AD9
000019CD
000035A6
000014D5
000028E2
00003569
00001B20
0000419D
00003B0B
00002ABA
00006164
00001D9C
0000723A
00003B6E
00001CD4
0000384D
000045FD
000027AE
000039B4
00001313
00003A0F
000031FC
00001542
00005213
00001CB9
00003514
000029A4
0000265F
00003614
00001DBE
00001B0E
00001B95
00001BC4
000021CB
0000157B
000058A6
000022C4
00001572
00003614
0000311F
00001FFA
00004080
0000C84A
00003CD3
000041A0
00003060
00001C16
000031DA
00001F83
00001927
00002642
0000346B
000016C8
00001542
000026F0
00003C27
00002023
00004A2F
00001AF0
00006EC8
00002A2E
00005559
00002A3C
000035DE
00002E5E
000056FB
00001AAB
00001CA7
00001BB7
00003D41
000037A0
000035BE
00003EFF
00001587
000028CC
000030C6
000024D0
00004E14
00005BED
00001F34
00005A4F
00002423
0000324A
00003DDA
000039FE
00003D4D
00000FD2
00002E7B
000039E9
00006A5A
00004434
00002BA5
00001D0A
00002162
0000230D
00004B87
00003676
00001B04
00002DD5
00002CFF
0000318D
0000599B
00002488
000013F4
00001654
00004551
00003632
0000181F
00001F2B
00002625
0000153A
00001336
00003009
00003DAC
00002B28
00001B69
00001869
00004D5E
00005D77
00004B43
00003F8F
0000169E
000018B8
00001CD0
000025C2
00001853
00003A30
00001746
00001AFF
00001C6F
00002648
00004914
00002E60
0000512D
000047F6
00005893
000023EC
00007BBD
000017BC
00001241
000020D2
00006177
000018F3
0000340E
00001800
000016B0
00003280
000029AA
000038F0
00001CB3
00007DEB
000036B5
00001B27
00002C9D
00001408
00001B34
00002516
0000470A
000049D2
000083B0
00003EB3
00006622
00004C43
000029D8
000029B8
0000594E
000057FC
00001D9B
0000428D
00001A19
00004C94
00001B4D
00006095
00001C1B
00002440
000062F1
00003CB1
00002165
0000448B
0000196B
00003F92
000013F1
00001485
000031B5
00004352
0000177C
00006CAC
000021D3
00003A5B
00003EFA
00004188
00002F85
00002F92
0000293F
00002428
00002AC9
000029F8
0000189C
0000172A
000023DE
000033B8
000055E3
00001A65
00001BE7
000030BD
00001A8F
00002C09
00001E2B
0000203F
00001753
00003447
000017CE
0000190D
00005ABB
000023D4
0000275D
000015F3
00002314
00001C74
000018E9
0000444A
0000375A
000021E5
00003155
00002BE3
000038AC
00003C33
00002497
00002FCC
00004C96
00003E77
00002124
00003891
0000285E
00001E1E
000035C6
00002175
00002CC0
000022DD
00001FF3
0000344B
00002897
00001C4D
00001497
000017B4
00003546
00002CD2
00003266
00001D7D
00001C8A
00002C77
00002B88
00001925
000037CE
00005FEB
00001E6E
00001ACB
0000496B
00004E34
000031C4
0000190A
00003743
000024FA
000019F4
000051EA
00005841
000034A9
000048A2
00005DCD
00003964
00001BCD
00002F3E
00002113
00001D0A
000043AD
0000176C
000031C4
00002D1C
000027A3
00003A80
000036EC
00001A9C
00001817
0000464C
00002CC9
00001FDD
00003E4A
00001E2C
00002468
00004F64
00003F7A
00002EC4
000015C5
000049D4
00005972
00002C32
0000EBAE
00002AED
00001490
0000482D
00005213
00002A5C
00003C5F
00003011
00001EA3
000035E3
00004EE4
000047D7
000035F9
0000323A
000025D0
0000332D
0000746D
000014F4
00003BB0
00003121
00001C07
00003C74
00002A0F
00001B52
00004BA0
00003E3B
00002094
00002AA4
00003942
000022E3
00001BDC
00001E82
00004C30
00003011
00001BF1
0000299C
00002A75
00001BFE
00003DB7
00001AEA
00006937
000030FB
00001E3C
00003591
00004505
00004697
00001D60
00001AF5
00001477
00002A7F
0000640E
0000226C
00003395
00003245
000015BC
00002FC9
0000215E
0000DE64
00003199
00005779
000033CD
00001C4A
00002B66
00001B13
0000612B
00001C12
00001903
00003C7E
00002B3D
00003435
000028F0
000091B4
00001F5A
00001E71
000039C1
000051F5
000038AC
00002A68
00001FB7
000032FA
00001C61
00001AC8
00001B5D
