// [DW-CONSTSHIFT] node_conv_890_scale.mem -- CONSTANT-SHIFT format.
// slot[30:0] = mult' = mult << (23 - shift)   (was {shift[21:16], mult[15:0]})
// consumed by node_conv_890.v: v = (biased * mult' + 2^22) >>> 23
// regen: scripts/build_spatial_scale_mems.py (auto-detects the [DW-CONSTSHIFT] RTL marker)
00003A12
000071D4
00002EA0
00006D10
00006AFF
0000473F
000046F7
00006448
0000593D
00005AEE
000061D2
00003A14
00005F12
0000E3EA
000077DA
00007DCE
0000A420
00005582
00009D9E
00007D80
00008966
00006287
0000702F
00006ABA
000080A0
00004C64
00002EFC
00003807
000066FC
00006FB5
00006B90
00010478
000082E8
000097D2
000027E4
00005146
00009C8A
000054B5
00009ADE
00004F02
00005BC7
00006A71
00007744
00003025
000052BF
000076AB
00004BC9
00005CB9
00005307
00005830
00007B97
000073F1
000061E8
000070D6
00006AD3
000095F8
000094EC
00004F6D
00006194
0000880A
00005EBA
00006D4E
00009050
000059AA
0000C6B0
00003733
000062E7
00008068
00006FB5
0000282C
00008580
000084C4
00003D7D
00003B6F
0000820E
00004F91
0000F18E
00003AE0
00008878
00006158
000192B0
000092C6
000060B5
00007FED
0000A152
0000A350
00008BD0
00009274
00007719
000060FC
0000A960
00007D84
00007FCE
0000526C
0000719B
00007610
00003C3E
00002B84
000062A9
00009198
000076A2
0000504A
00006B00
0000CB3A
00003BE1
0000566D
0000982A
00007F20
00008A02
0000AB40
00007D40
00006E9E
00008D16
00002F01
000035DD
000054C9
00005140
000036EA
000058DE
0000473A
00003B27
00006FE7
00009896
00005DED
00008F46
000075FA
000062AD
0000811A
00004BF3
00008258
0000909A
00007619
0000EAA4
0000AC3E
000069DD
00009CAA
000099A4
00009DD0
0000730B
00003501
0000490F
00008882
000053F0
00008A4E
000073A3
00009794
0000BDF0
00004ABE
0000CFD6
00004DF8
00003EC5
0000BA08
0000A3F2
00009DA4
0000735E
0000884A
00008794
00004557
000076B5
00005834
00005808
00004A0D
0000B430
00009C7C
00006F37
000032A8
00005CC0
000067DC
00005245
0000808A
00003C00
00003349
00009A42
0000563F
00008532
0000B630
00005483
0000A62E
0000764F
00008B42
0000751E
0000A680
0000C4F6
000085C6
000070C1
00008FB4
000046E7
0000C3A4
00008F56
000084A2
000055E9
0000587F
00004001
00005645
00006301
00003E51
00021650
00009C26
0000749B
000077C3
0000A1F4
00008038
00008D9A
0000680D
0000CA02
000050DB
0000335F
00003D8B
000053EC
000066E6
00006965
00006C49
00009F7E
00004F9E
00008290
000068C7
00006FF0
0000A3A8
00005A5A
00009466
000049F9
00007CA2
00006A64
0000904E
00003BF7
000058A0
000075F3
0000701D
0000CF06
0000AE70
00008D78
00004516
00007FD2
00007400
000067B6
0000736E
00006B9E
00005B7C
00004A93
000069DC
000058B9
00003BEE
00006390
000059E8
0000748F
00002139
0000A780
00007C02
000090F0
00006DF9
0000330B
00002404
00006F7C
00007AB9
00006771
00005B5E
000071DD
00008162
0000A2BA
0000881A
0000564E
00007A75
000057F8
00007ADB
00008292
00007CD8
00005326
00003DC9
00007396
000053BB
00007FCF
000082AE
00007F08
000064F9
000088B2
00005283
00006AA9
00008318
00005082
00002272
0000D794
00004658
00005546
000077CD
00005B1D
0000812A
0000767B
00006ECA
0000887E
00007661
00008B80
000026A3
00008960
00004B41
00006335
00007779
00007047
000081FE
00006B28
00007A41
0000895A
0000625A
00005331
00008682
00004FFE
00001BD6
000077A1
00003C7A
00007042
000050F9
00002F17
00005F1D
00005B8E
0000A048
00003810
00005F60
00007E3C
000060BB
000060C0
0000491D
00009D02
00004D11
0000768D
00003836
00005CB6
00004C5E
0000AF1C
00009006
00006732
00004613
00008E5C
0000358E
00005365
00005978
00005473
00006133
00007F2F
0000C438
000045B6
00007356
00009B22
00008F40
000049C7
00009916
000062AD
00009380
00004E71
000078B2
000074B0
00015E14
000065D4
00007614
0000501B
0000BE52
000036FA
0000B298
00004459
0000B5E8
0000925A
000065D2
000077C5
00014468
00008312
00003311
000059D6
000084CC
00004B8B
00005662
00004EAF
00006AB2
00002CAD
00006AC2
00006FCB
00008A86
00004A01
00005B9D
000060CC
000057ED
00007A16
00004187
00007FE5
00007699
00004726
00005467
00004BC8
0000327A
000069C3
0000747D
0000D810
000070DC
000078F6
00008ADA
00004123
0000556E
00004A82
00003407
0000886C
00004983
0000AB60
0000FE24
0000439D
00004413
00007E4C
00002BB9
0000415C
000059A1
000056FF
00008680
00007079
0000786A
0000739B
0000923E
00005D1A
00006C74
0000CDFA
00006F94
00004A84
00004945
00003F1F
00006995
00006D10
0000B07A
0000248F
000048B6
00008418
00004F2D
0000B6E0
00007A95
00007521
00006DD8
00005EBC
00007698
00003916
000082BA
0000981E
00003234
00004906
00002DA8
00007E32
000069FE
000055B5
00003E81
0000739A
00008B9A
0000372E
00004B03
00009354
00004454
00002AE6
000070D2
000033BB
0000A2CA
00004772
0000401C
00009414
000084B8
000080B4
00006CDD
00008118
0000A344
0000510D
0000890A
00019924
0000A3B8
0000362B
00008726
0000927C
000037C4
00007562
00006E59
0000B730
00008BC8
000075CA
000087DA
00005FF4
0000904E
0000AC8E
000050D2
000076C0
0000B7C4
0000B1B4
00003EEF
000059B1
00005825
0000AEFE
000071D2
0000588E
00005770
00007370
0000A03C
0000A8F6
0000825C
00007F29
00007CAE
000060B0
000087AE
00009760
000068AC
00008FEA
00005842
00005251
0000855C
000089F8
00005B7A
000035DF
00007070
00006AF8
000082C0
0000B612
00007A43
00008E6E
000028C6
000050E7
00009204
00007C8B
000055F5
00004DD2
0000758D
000084E6
00006FDA
00006E7E
00007E0F
00006C6F
0000874E
0000B8FA
00005E3E
0000D59E
0000ACBE
0000733F
00008C7A
0000661A
00005C57
00008618
00007103
00006A2C
000085B0
0000A19E
00003A57
00009000
000029E4
00003136
0000AA7A
00003681
000024FA
00003510
00006307
000071C3
00004FF7
0000A33E
00003C18
00009D42
00009E9C
00008E32
00005794
000069C1
000066CD
00003131
00009722
000055C3
00007152
00007D94
00005BEC
000070FF
00006BB3
000088FA
0000AAA6
00007F74
00006BC2
0000947A
00009EAE
00009C0E
0000ACAA
00006545
000022B6
000089D6
00009D70
