// [DW-CONSTSHIFT] node_conv_866_scale.mem -- CONSTANT-SHIFT format.
// slot[30:0] = mult' = mult << (23 - shift)   (was {shift[21:16], mult[15:0]})
// consumed by node_conv_866.v: v = (biased * mult' + 2^22) >>> 23
// regen: scripts/build_spatial_scale_mems.py (auto-detects the [DW-CONSTSHIFT] RTL marker)
00002F43
00008362
0000B182
00002D16
000013CF
0000401F
000050FE
00003635
00001ED6
0000CFE0
00008B62
0000295A
000068BF
00027890
000069CE
00007826
00002E5F
00007883
000058D8
000031B1
00002BD7
00003761
0000B2AA
000067D6
00005A97
000035A1
00003DD4
00005FAE
0001473C
00003888
00004B18
000057A6
000033A1
00009030
00006E03
00004E8A
00004A8A
00006E05
0000441F
00004D58
00003163
0000291A
00005FF7
00005B67
000089CA
000035FD
00000EE5
000075E3
00005447
00003FA3
000026BE
0000B710
00007609
00003AEA
0000552B
000035D7
0000614C
0000488E
000047C0
00001E10
00002FDC
000028A1
000047B0
00002D9A
00003201
00004EF4
00002956
00003686
000034E8
000070AC
00004220
000043D2
0000889C
00005DAE
000069E7
00006744
00003A55
00004B6C
000070C9
000073C2
000060CE
00004DDF
00006F87
00004689
00005A31
00008E1E
000059F2
00002E16
00009908
00001D31
0000DDC8
00003BED
00005C8C
000071A1
000076E9
00004310
000045F3
0000324E
000011ED
0000300E
000024BF
0000B610
000034FD
0000530C
00002C33
00004D94
000029E5
00007986
00003AE3
000068F1
000046F9
000060E1
000028CB
00001EBB
000030C6
0001146C
0000288E
00002D7C
00003DE6
00003602
00001CD3
0000725E
000016DE
0000456E
00005F07
0000675A
000044FB
0000A840
00007940
00003484
00004DB2
0000C4C6
00006726
00005BC9
0000360F
000160B0
000085D0
00005B15
0000196B
00004B39
00004C31
000045E2
00006A7F
00003534
0000417F
00006245
000087F8
00003F0E
0000299E
00006A1C
000052EA
000049DA
00004104
00002EDC
000035E4
00002793
00004D33
000101AC
00006F88
00002242
00006373
0000224A
0000371C
00003D54
0001161C
00004150
00007638
0000D348
00007994
00001566
000046FC
0000B082
00001E7A
00002F41
00006007
00004704
000050B4
00006CEC
0000471E
0000420E
00004227
00006331
000169A0
00003BE8
00002880
00001E25
000066E1
00005D8F
00003576
00004A64
000053EA
000069CD
0000492E
00003C22
00003379
00005830
00003C81
0000323A
0000308D
00004B49
0000966E
00001FE1
0000A8B8
00006AA0
00016678
00003964
000064C0
00003027
0000E358
0000FDBA
0000446B
00006AC9
000066F8
00004443
000086E4
00004763
00001C04
000064EB
000030A8
00002EC7
0000906E
00004894
00008A74
0000BD1E
000049E6
00001698
00006271
00004329
00004C1A
00008B6E
0000507C
000024D6
00004724
000022A8
0000E5DC
0000297B
000048DD
0000417A
000057CD
000043C9
00012348
00005C0D
0000546B
00003748
000034B0
000056B4
00006F2B
00005AAB
00004DE5
0000CAB6
000028AE
00004EE9
000059C6
000060D7
0000607D
000055C9
00004E91
000028BD
00007460
000023D4
0000251F
00001C17
00001BBF
0000589F
00003DFD
0000419E
000043D5
00003C92
00005700
00003FB7
00005508
00005158
00005C02
00005511
00005E32
0000381C
000046E5
0000366C
0000568E
00002CEE
000010F7
0000A4E0
00002F1C
00004554
00002239
00002F24
00007B4C
000053EE
00009054
00006103
000016E8
000045D6
0000446F
0000423F
00003FDB
000048D9
00005222
000030BC
00007407
000047A3
000069C3
00004F8F
00005E99
00003FEF
000024B7
00003FD0
00004A27
0000982C
000058DF
0000346E
0000643F
00008110
00003E01
000050A5
000086B6
00009A92
000021DE
0000793E
00009E08
00004D57
0000573B
00009D40
00003312
0000493F
000067F8
0000BCE4
0000577D
00008892
000039F6
00005E0A
00009358
00004F6A
000048A7
000054A3
00007207
0000CEFC
00004102
0000EDA8
000031B4
00005FE9
0000299D
000065BD
00007FCE
00003CFF
000059B8
000033D7
000030D3
00001F2A
000043E0
00003F8C
00006B12
00005A75
00015DCC
00001A53
00007E99
00004C2A
00003E3D
00003351
00005164
00007024
00002CA3
00006023
00005A03
000025A4
00001A80
0000675A
00001C9D
00003030
000044CC
00007E60
00003C03
000045FE
00002213
000013EB
000027A3
0000883E
0000B0F0
0000AE68
00003FED
00006FE2
00005E08
0000AFAE
000024E3
00005BE4
