00172115
001705AD
001641AF
00174C2F
00170B99
00170ABD
001501BB
00160D4B
00150D29
0016124B
00150ADF
001719B9
001401FF
00171EDF
001724E1
001626CD
00171FB5
00162D41
001713A3
00150445
00162FF3
00172079
00170E89
00140429
00171E4B
00172287
001732FB
00160EF5
00173295
00140403
00171EA9
00170BC7
001610C7
00160991
00172E53
00161689
00173A5F
00130107
00171709
00170BED
001306EF
00172A5D
001617A3
00177E75
00170AC3
00151B2D
00175103
0013014B
00176F35
00150C51
00171543
00160891
00172FF7
00130171
00170AA9
00150B61
00176B91
001302BD
0016164D
0017114F
00160E59
00172F43
00170DA9
00160C79
001401C1
0015048F
00161A33
001508C9
00160F5D
00110051
00171FCF
00171D35
00171F8D
00174891
001604F7
0015026F
001712D1
00150A4B
00160783
00160C83
00161051
00160383
0013018B
00160E23
00150313
001739F9
00171AB7
00150717
00170EEB
001720FB
0017241B
00171BF7
001753C1
001706ED
0013015F
00160323
