00161D09
00151C75
00120175
001306D1
00176AFF
0017473F
001746F7
00140C89
0017593D
00162D77
001630E9
00150E85
00162F89
001671F5
00163BED
00163EE7
00120521
00162AC1
00164ECF
001000FB
001644B3
00176287
0017702F
0016355D
00120405
00151319
00150BBF
00173807
001519BF
00176FB5
001306B9
0014208F
0014105D
00164BE9
001509F9
001628A3
00164E45
001754B5
00164D6F
00162781
00175BC7
00176A71
00151DD1
00173025
001752BF
001776AB
00174BC9
00175CB9
00175307
00130583
00177B97
001773F1
00140C3D
0016386B
00176AD3
001412BF
0015253B
00174F6D
00151865
00164405
00162F5D
001636A7
00130905
00162CD5
00130C6B
00173733
001762E7
0014100D
00176FB5
00150A0B
0010010B
00152131
00173D7D
00173B6F
00164107
00174F91
001678C7
001201D7
0014110F
00140C2B
0013192B
00164963
001760B5
00177FED
001650A9
00130A35
001308BD
0015249D
00177719
0015183F
0012054B
00151F61
00163FE7
0015149B
0017719B
00130761
00161E1F
00150AE1
001762A9
00141233
00163B51
00162825
000F006B
0016659D
00173BE1
0017566D
00164C15
001203F9
00164501
001102AD
001101F5
0016374F
0016468B
00172F01
001735DD
001754C9
00110145
00161B75
00162C6F
0016239D
00173B27
00176FE7
00164C4B
00175DED
001647A3
00163AFD
001762AD
0016408D
00174BF3
0014104B
0016484D
00177619
00153AA9
0016561F
001769DD
00164E55
00152669
001309DD
0017730B
00173501
0017490F
00164441
0013053F
00164527
001773A3
001525E5
00130BDF
0016255F
001667EB
001409BF
00173EC5
00141741
001651F9
00152769
001639AF
00164425
001521E5
00174557
001776B5
0015160D
00140B01
00174A0D
00130B43
0015271F
00176F37
00140655
00110173
001519F7
00175245
00164045
000D000F
00173349
00164D21
0017563F
00164299
00130B63
00175483
00165317
0017764F
001645A1
00163A8F
0010014D
0016627B
001642E3
001770C1
001523ED
001746E7
001530E9
001647AB
00164251
001755E9
0017587F
00174001
00175645
00176301
00173E51
00132165
00164E13
0017749B
001777C3
0015287D
00141007
001646CD
0017680D
00166501
001750DB
0017335F
00173D8B
001514FB
00163373
00176965
00176C49
00164FBF
001627CF
00130829
001768C7
001306FF
00141475
00162D2D
00164A33
001749F9
00163E51
00151A99
00164827
00173BF7
001202C5
001775F3
0017701D
00166783
00130AE7
001411AF
0016228B
00163FE9
000D001D
001633DB
001639B7
001635CF
001516DF
00174A93
00151A77
001758B9
00161DF7
00130639
00140B3D
0017748F
00172139
0010014F
00163E01
0013090F
00176DF9
0017330B
00150901
00151BDF
00177AB9
00176771
00162DAF
001771DD
001640B1
0016515D
0016440D
00162B27
00177A75
00140AFF
00177ADB
00164149
00140F9B
00162993
00173DC9
001639CB
001753BB
00177FCF
00164157
00140FE1
001764F9
00164459
00175283
00176AA9
00141063
00162841
00161139
001535E5
001408CB
00162AA3
001777CD
00175B1D
00164095
0017767B
00163765
0016443F
00177661
00100117
001726A3
0012044B
00174B41
00176335
00177779
00177047
001640FF
00140D65
00177A41
001644AD
0016312D
00175331
00164341
001627FF
00160DEB
001777A1
00161E3D
00163821
001750F9
00172F17
00175F1D
00162DC7
00141409
00130381
001202FB
00151F8F
001760BB
00110183
0017491D
00164E81
00174D11
0017768D
00161C1B
00162E5B
0016262F
00152BC7
00164803
00163399
00174613
00152397
00161AC7
00175365
00140B2F
00175473
00176133
00177F2F
00141887
001622DB
001639AB
00164D91
0011023D
001749C7
00164C8B
001762AD
00100127
00174E71
00163C59
0013074B
00155785
00151975
00151D85
0017501B
00165F29
00161B7D
00141653
00174459
001416BD
0016492D
001632E9
001777C5
0014288D
00164189
00173311
00162CEB
00152133
00174B8B
00162B31
00174EAF
00163559
00172CAD
00163561
00176FCB
00164543
00174A01
00175B9D
00151833
001757ED
00163D0B
00174187
00177FE5
00177699
00162393
00175467
00140979
0016193D
001769C3
0017747D
00130D81
00151C37
00163C7B
0016456D
00174123
00162AB7
00162541
00173407
0015221B
00174983
0012055B
00153F89
0017439D
00174413
00151F93
00172BB9
00151057
001759A1
001756FF
0010010D
00177079
00163C35
0017739B
0016491F
00162E8D
00151B1D
001666FD
00151BE5
001512A1
00174945
00173F1F
00176995
001306D1
0016583D
0017248F
0016245B
00141083
00174F2D
001205B7
00177A95
00177521
00140DBB
001517AF
00140ED3
00161C8B
0016415D
00164C0F
00150C8D
00162483
001405B5
00163F19
001634FF
001755B5
00173E81
001639CD
001645CD
00161B97
00174B03
001524D5
00151115
00161573
00163869
001733BB
00165165
001623B9
00151007
00152505
00141097
0015202D
00176CDD
00141023
001528D1
0017510D
00164485
00156649
00141477
0017362B
00164393
0015249F
00150DF1
00163AB1
00176E59
00130B73
00141179
00163AE5
001643ED
001517FD
00164827
00165647
00162869
001101DB
00152DF1
00152C6D
00173EEF
001759B1
00175825
0016577F
001638E9
00162C47
00130577
00130737
0015280F
0016547B
00152097
00177F29
00163E57
0013060B
001643D7
001204BB
00151A2B
001647F5
00162C21
00175251
00152157
0014113F
00162DBD
001735DF
00130707
00140D5F
0011020B
00165B09
00177A43
00164737
00161463
001750E7
00152481
00177C8B
001755F5
001626E9
0017758D
00164273
001637ED
0016373F
00177E0F
00176C6F
001643A7
00165C7D
00162F1F
00166ACF
0016565F
0017733F
0016463D
0016330D
00175C57
001410C3
00177103
00151A8B
0013085B
001650CF
00173A57
000B0009
00150A79
0016189B
0016553D
00173681
0016127D
00130351
00176307
001771C3
00174FF7
0016519F
00140783
00164EA1
001527A7
00164719
001515E5
001769C1
001766CD
00173131
00164B91
001755C3
001638A9
00151F65
001516FB
001770FF
00176BB3
0016447D
00165553
00151FDD
001635E1
00164A3D
00164F57
00164E07
00165655
00176545
0016115B
001644EB
001309D7
