001729E1
001000B9
001406ED
00173837
00152BED
001201E1
00171A47
001506E5
0017470F
0017328B
001000C5
0015060B
00176A73
00160975
001738E1
00165037
00171B7B
0016120F
00177409
00172095
00161053
001755D3
00164457
00150985
0017136F
00173603
0017204B
0016113F
00120587
00160FE5
0016173F
0011007D
00173C9B
00140AF1
00173383
001742C7
00150D39
001618E7
00171C77
00161993
001505A9
00164BD3
00171F13
00171E9B
001722DB
00171AE7
00150EC3
00140709
00172F6D
00100037
00161371
00150CC3
001763D5
00173F75
001303FD
00171E91
00161B3F
00172FBD
00172E87
00174C73
00161EB5
0015106F
001755B5
0017318B
00162589
00172A39
001406EF
00173677
001761F7
00174733
00171CCF
001723BB
0017302F
001614FB
001403F1
00175559
00172799
001753DB
00173C57
00142141
00173D6F
001625C1
00000001
0017583B
001201E1
001606F7
0017517B
00173E3B
00174C0D
00160C8F
001629CB
00160AA1
0017246B
0016187D
00160AFB
00152489
00173C99
00160B19
00172B0D
0017356B
001738F9
001527D9
00161435
0017519D
0017307F
00172D63
00166B0B
001100DF
00162AA7
00172139
00160F2F
00160E7F
00161537
001733FD
0014085D
001725FD
0016221B
001506E7
0016134F
00160B4F
00161389
00173B57
0012024D
001722A5
00160CF1
0012029F
001517DB
0017147D
00171891
001732D7
00173D09
00160E45
00170A93
00161B9F
00164707
00167A9F
001509D7
00150BED
001615AF
00172193
00172265
00172B4F
001741A9
001723A3
