// [DW-CONSTSHIFT] node_conv_896_scale.mem -- CONSTANT-SHIFT format.
// slot[30:0] = mult' = mult << (23 - shift)   (was {shift[21:16], mult[15:0]})
// consumed by node_conv_896.v: v = (biased * mult' + 2^22) >>> 23
// regen: scripts/build_spatial_scale_mems.py (auto-detects the [DW-CONSTSHIFT] RTL marker)
00007D49
00008954
0000B4BE
00004A5D
00012AE4
00008288
00019AC8
00008824
000033FF
000039E4
00008574
00006B4B
00007266
000090FC
0000B438
00014AD8
00007315
000043E9
0000932A
0000CAE8
00008C6A
0000ECBC
0000E8C0
00006554
00005525
000032F8
00002D47
0000ADA0
0000B48A
0000D208
0000DCAC
0000DE56
00014380
000075F4
00008B46
0000793A
00011850
0000D9DE
0001010C
00008672
00006DB8
0000D156
0000D772
00004C36
000061F8
00008E74
00007EA8
00011554
0000FE0A
0000BEC8
0001330C
0000A744
000066F1
0000662B
00008A2C
0000A8CA
00009732
00015888
00014C74
00007CAB
0000B0B6
000116B0
00006776
00009C12
00015A0C
000059D9
0000B7DE
0001E958
00009D1C
00006D23
0000F19E
000076C6
0000B1B2
0000E13E
000098D8
00008084
0000721A
0000D176
00007BC9
00005C65
00002F94
00006D02
0000B8CC
0000818C
00002D2A
0000A720
00003478
0000C6E8
000056A7
00006865
0000AFD2
000128E4
0000933A
00007262
00012898
0000C082
0000D618
000132E0
00008D90
00006ED4
0000D12C
000080B6
0000360C
000097DE
0001936C
00004BD8
0000865E
0001680C
00005C0F
000034B6
00008D02
00008E3C
00014A80
00010820
00008344
0000993C
0000798F
0000A88E
00003555
0000D0AC
00008D22
0000F812
0000D614
00008646
00016F04
000052F5
00004855
000070F5
0000A130
00007F8C
00004D16
0000BDE8
0001C294
00004111
0000899C
0000D9F6
0000C3C6
0000599B
0000CA7E
00003B32
000074C0
0001623C
00012C84
0001321C
000043B6
000031A3
0000C79E
0000C076
00007E20
0000980E
0000AAFC
00012208
00011468
00008286
000090CA
00009B14
00013068
00008A18
000086C4
0000A220
0000CAB6
0000C5C6
00005928
0000C482
0000CACE
000058E3
00013940
00002BA5
0000D09E
000110BC
0000B432
0000783A
00005CF8
0000FAE8
00003DB9
00003BCE
00006130
0000B7EE
0000B470
0000C974
0000A38C
00005ADA
00009048
000138B0
0000800E
00005AC9
00007DD7
00008258
0000E892
0001002C
0000A868
000122EC
0000FCDA
00003EAE
0000CE5C
0000361E
00004D3A
0000B0DC
0000C42A
00008D56
00020868
00009358
0000B9BA
00006238
00006915
0000E07E
0000CA90
00011828
00007421
00007258
00005A6E
0000839C
0000A2F4
00006463
0000A008
0000A916
0000DDEA
0000D630
00011538
00008DC8
00004607
0000BA8E
0000738F
00016188
0000F616
00008C6C
000086C0
00008DDE
00005314
0000C08C
0000E226
0001D5EC
0000F07C
00005D2F
0000840E
0000A0A8
000031DB
000053DD
00004049
000090B6
00011540
0000ED4C
000235A8
0000A5C8
000062C3
00003FC3
0000CAAC
00009882
00010AA4
0000B036
0000B528
000067CF
00007C90
00009C56
0000B3E2
00006368
0000A37C
000086C6
000088B4
000087BE
00009582
00005F84
00014788
000030B1
00007A3B
0000ED30
00008E9C
00003D59
000078BA
00002C01
00008D2C
000095FA
00007570
00004E28
00004815
00800000
00002BC0
00005C04
00006C5D
0000CC5A
000248F8
00004FD5
000045C3
0000820C
00008794
00009B52
00010838
00009FCC
000116C8
0001AF00
00005AF2
00005F84
00006488
0000EE30
00005EB9
00008384
00003282
0000B278
0000C4F6
00004105
0000500E
0000925E
0000C236
0001207C
0000D95C
00007205
00009046
0000B8FA
0000594A
00005EB6
0001014C
00006405
0000BA0A
0000C8EC
00005405
000098EE
00007FBE
000075E4
0000E52A
000067A0
0000A50E
00018D5C
0000C9CE
00007FE2
000097AA
00005C40
0000B056
000095D2
00005D49
0000A3BC
00005256
0000A3B0
0000A83C
00010324
000092C0
00008A52
00002386
0000688D
0001184C
00006B12
00800000
00007F46
00004074
00011654
0000ECB6
00009480
00011F44
00004183
0000E66C
00009CB0
00005776
0000C188
00007838
00008FFE
0000C814
0001CA18
00008A58
0000A93E
00002BE0
00005632
00009E38
0000401F
0000C5D2
0000D928
0000A8C2
0000C768
00008F82
000068C3
0000B102
00005523
0000823E
00006D2E
000080C4
00013FA0
00012210
00007115
0000A4E0
0001A550
000078B0
000057CE
0000D2CE
0000BA78
000111FC
00003CCD
00009178
000084E2
0000EF72
0000D690
0000CC6C
00005A5A
0000627D
00005137
0000AA7C
000053D4
00006970
0000A38A
00006804
000071BA
0000447D
0000233A
0000C076
00007058
0000AA68
00006D94
0000DAF8
00007AB9
0000E552
0000B05C
0000C0AC
0000A55E
00010254
0000971C
00006761
0000C826
00004DFE
0002A718
00009A86
0000AF6E
00003270
0000DDA8
0000BE2A
0000D64E
00007CAB
00005DA6
00007083
000081A6
0000C56E
00002F41
0000B74C
00005604
00002E0C
00007F0D
00005BC2
00008C3C
0000766B
000030E8
00009CF2
0000C9F8
00008B36
00003E69
0000F378
0000EA18
00003E3A
00011FA8
00009AEA
00009FA4
0000462D
00011D30
00005B47
00007ED0
0000A18E
0000AE9A
0000AF2C
0000D428
0001D190
00005B86
0000DAC6
0000EDD4
0000F196
00006EAE
00012970
00006455
00800000
000065A6
00018E94
000026F3
0000A12C
000052F6
00010B54
00012BC4
000067F1
0000DD1A
00006DB5
00014970
00008A96
00006CF4
00007702
00004C4E
0000A99E
00008C48
0000833C
0000ACEA
00007D3D
0000D180
00003B08
00005F55
00003F72
00008444
0000561F
00006936
000128DC
00003681
0000318B
00005CF6
000030AE
00003081
0000F02A
00006ABE
0000788F
0000ED92
00009026
0000E0F6
0000A646
00004F65
000050AA
000096B4
0000E5F4
0000BF8C
0000A9BA
00007A70
0000B58E
000097F4
0000A68E
00008474
0000401B
0000DE08
00005892
0000DD2C
00006147
00008688
00008420
00007391
00003FAF
00009F66
00008326
000072C2
0000AE7C
00006077
0000746C
0001125C
000068A8
00011328
00010074
00012884
00010DF4
0000A6C2
0001F69C
0000A8FA
0000784E
00008C44
0000645A
0000E40C
0000EE20
0000D2E8
00009F28
0000DEC2
0001D760
000074F6
00009AE8
00006092
0000DB2E
00001FFB
0000C420
0000F03E
00009B0E
0000BA90
0000F014
00013254
000068EB
0000917E
00017404
0000D88A
0000E158
0000B030
0000C970
0000BFA2
00007C7B
0000AAAE
0000A780
00007B1C
00008370
0000CCF0
0000BC36
0000A706
0000C64A
0000ED94
00004BC7
00003941
00010CCC
0000A068
0000590F
00012320
00007F0E
0000471C
0000AF26
0000DC82
00002A05
000098E6
00005DDE
00007D54
0000DD04
00010168
0000BC38
0000BEF0
0000503D
0000717A
000073FF
00011CE0
00005126
00008C2A
0000A7E4
00009B18
00006CAA
0001359C
0000C0E2
00009C94
0001EE8C
0000B5E6
000046E6
0000DD06
00005F52
0000303F
00003EFA
000082D2
00009CF8
00009220
00010044
00009FB8
0000AE1E
00007B6F
00006B36
00003EB5
0000AA8C
000061EF
00004FE2
0000B7F8
00006C1A
00006C86
0000BCD2
00008750
00006D79
00008DB2
000092E2
00009A36
00004006
000084F0
00009C52
00009662
0000FB0A
00002AC5
0000391B
0000CA92
00008B04
00004C60
0000ADBC
0000F7EA
00003F61
0000C624
0000D276
0000AEF0
00002A9E
0000735E
0000999C
00006DA0
0000A500
0000764B
0000CBCE
00006FCB
00009062
00005FAA
0000ED46
00018868
00004FCE
0000AA4E
0000848A
00007C2D
00009B98
00008342
000091C2
0000A41C
000058C0
00009804
0000B4DC
0000CEE0
00008116
000031C8
0000422D
00006911
0000CC7A
0000991C
00008098
0000552C
0000C4E0
00006D9F
00008CCA
00008CEA
00005D6D
000059D8
00003B12
000054B7
00015450
00004824
0000B6EC
0000988C
000108E0
000057C2
00007DE2
0000F6FC
00003452
0000672B
0000B574
000043B6
000051C4
00006812
0000DE2C
0000B81A
00006026
0000A904
0000830C
00002DAB
0000C51C
0000D54E
00007517
000134FC
000061C7
0000C936
00006FD9
000053C3
000170B8
00019570
0001395C
0000E0A4
00007899
00007050
000039C2
000158F4
0000EEAC
000095D8
00007FEB
00010DF8
000163FC
00005C27
00002A92
000028AF
0001E194
0000AF74
0000858A
0000646F
000099D8
0000B346
0000756A
0000F6BA
000145DC
00020360
0000CF98
000079F8
000076E5
0000A728
0000BAC2
0000A900
0000A484
0001A980
000038F8
00009E94
00004C5A
0000924C
00006C4B
00007741
0000ACB8
00011ADC
0000547D
00008E60
0000477B
0000C7F0
00006C0C
00009482
000065AA
00007107
00010674
0000ACF8
0000625D
00005DA9
000090C8
0000274A
0000A67C
000065F1
0000B60A
0000B802
0000DF36
00006071
0000C67E
00002534
00006E51
00006AF4
0000BA7C
00007EA3
00015B94
0000AC72
000072B4
0000ED32
00006350
00007907
00011B90
000100B4
0000CB86
0000F25E
00005C57
0000A542
0000B82E
00007EA1
00005F57
000097FE
00005FA1
00008D4E
00002D78
00005934
000057B5
0000A8E8
00009CDC
00010F7C
00012B4C
0000B59E
0000FB14
00004061
0000FD66
00013D78
00012454
00008E4C
0000EE36
0000D316
0000BD12
00008896
00015538
0000B706
000059EC
00007851
0000A2EA
00009674
00002D53
000092D8
00010394
0000304E
00008FBE
00003002
00007456
000059BF
0000BF36
00007670
00002F5A
00009684
00006A7E
0000695F
0001511C
0000FDC8
00006CB5
00007BF9
0000B9CC
00005C55
0000C0BE
0000E424
000041C4
0000B536
0000B09E
0000FC44
0000CE0A
00008406
0000B4F6
00007F91
00004882
0000F150
000047D2
0000989A
00009A4A
0000CC60
0000CC6C
00025470
0000CC4C
00009DD8
0002A0E8
00005D7A
0000B254
00007539
0001787C
00002566
000158E8
000100E8
00003ED4
0000C1A0
0000A89E
00008040
00009190
000146C8
0000CE46
00007197
00012E80
000049DE
0000BEC0
000047BE
000062A0
00003E48
00009322
0000FA62
000072D5
0000B35A
00005C3F
00003EE0
0002FF30
000094C2
00007388
0001293C
00009126
0000A6F6
0000FB92
000054F8
00016DF8
0000FFBC
000072C2
000073AE
00007CD1
00008590
00013440
00019120
000098B4
00014A58
0000667E
0000F618
0000CDA2
000069CC
00005A2A
0000B4D6
000077BA
00008DDC
00011160
00021408
000075E1
0000CC7A
00005522
000086AA
0000BB1C
00006368
000193FC
0000314D
0000E20A
0000DFD8
0000483A
00009C9E
000123A0
000102C0
00005846
0000E5AE
00005D1D
0000D2EC
00003BA2
00004432
00007931
00008CF0
0000C9A4
0000C05A
0000ABAE
00009874
00006107
00009AD4
000062A4
00006BE0
0000A7C4
0000374D
000053B2
00002A73
00005053
00010C44
