// [DW-CONSTSHIFT] node_conv_878_scale.mem -- CONSTANT-SHIFT format.
// slot[30:0] = mult' = mult << (23 - shift)   (was {shift[21:16], mult[15:0]})
// consumed by node_conv_878.v: v = (biased * mult' + 2^22) >>> 23
// regen: scripts/build_spatial_scale_mems.py (auto-detects the [DW-CONSTSHIFT] RTL marker)
00019650
0000DC9E
0000F55A
00009678
00003D1E
0000B8FC
00013870
0000C7A2
0000584C
0000B4E0
0000CABC
0000D2BC
0000BD4C
000058E4
0000A2DE
00009636
0000A4DA
0000D248
000044EA
00003328
00008768
0000D286
00009930
0000852E
0000CCB4
0000B9AA
0000AADA
0000B492
0001BA04
00005CD1
00002217
0000A392
00009FF4
00007CF1
0000482F
00009F1C
0000C5FA
0000C4E4
00006E50
0000B3A4
000082C0
0000AEE2
00007796
000087F0
00007BF9
00010558
00002E3F
0000C6E8
000273B8
0000FA24
0000C3B8
0000BED0
000073F9
000079B2
00007660
0000DEAE
0001FF4C
0000607B
00006263
00009B1C
0000902A
0000666A
0000B5A4
0000E6A2
0000EC42
00006C03
0000D468
000078B0
00009138
0000B008
0000D1A8
00009382
0000BE18
000079B1
0000C0EA
000052C4
0000A87C
00006CC8
0000E6B2
00010FC0
0000A8CE
0000637F
00009C64
0000834C
00006E7A
00009760
00008DD4
0000F122
000103DC
00014B1C
000053FC
000154CC
00004677
00006E30
0000A7AA
000054D8
0000D476
00007634
0000DDCA
00002ED9
0000F0D0
00008C4C
0000C768
00007393
00009A5E
00006C29
0000983C
0000D7D2
000139F4
000118F8
00003942
0000C2C2
00013238
00008C3E
0000E422
000068A7
00010DF8
0000A0EA
000076D8
0000CC40
0000605A
0000A410
0000EFAA
0000E70E
00006FD4
0000A7E2
0000A870
00008E92
0000AFB6
00009AF0
00008650
0000AE26
0000806A
00006643
0000D624
00006433
00013118
0000A7BC
0000F6B8
00007687
00006824
000035B1
0000E582
00009D66
00006CF2
0000AF72
0000D8CE
0000D19A
00010A4C
00005CD4
0000C900
0000B280
00006B8B
00005006
0000F6DC
0000A296
0000F0D2
0000EDE2
0000C10E
0000995A
00010AE0
00005A8A
00013704
00005EF5
00006B64
00004D24
0000BE38
0000C5C2
0000A446
00010BB8
00005253
0000B49C
0000AD4E
0000A0EE
0000669A
0000FDD4
0000904E
00009F38
000079D5
00007E76
0000A3A2
00009682
00006930
0000EB9A
00005D7C
0000A0FE
0000F15C
0000DB7E
000070EF
00008340
0000C400
0000D540
0000CBB8
0001385C
00009376
00003AFB
000140C4
0000E1DE
00013644
0000BCEC
00017488
000075F2
0000F504
00003D4D
000081BC
0000E2FA
000086AC
0000B06A
00005790
0000E48E
0000EA7A
000049E8
00003326
0000A556
000056C1
00009860
0000B88C
00012244
00008D76
0000BBC0
0000F9C4
0000A7DE
0000AEB0
00008544
00008064
00007BD8
00005E0B
0000E098
00010520
0000A1E4
00003BC7
000065E0
00006CBC
0000903E
0000D50C
00003C0A
00003039
0000756F
000102E0
0000A75A
000072F9
00004E25
00006842
000099EC
0001F438
00007582
00007B0B
00003028
00003B31
00009008
0000A5FE
00013578
00008C40
0000C17C
0000CF44
0000CC82
0000C5C8
000120AC
0000CCB0
00008D92
0001109C
00007C6D
000065A2
00006F26
0000CB7C
0000AA1E
000092FE
00009DE2
00014030
0000E6D8
00005C5C
00006BFF
000060D6
00003223
0000A512
00005E0C
00017DC8
0000548D
00007510
0000EFAE
00009B88
00006B3B
00005288
0000BC74
000086A8
000161D0
0000BE04
0000AA36
00004FA9
0000A42E
0000703E
0000B368
00007920
00010764
0000AB04
000144D0
00010054
00005422
00003DD1
00007DBC
00002995
000105A0
00003F7B
000098DE
00008E18
000056E0
00005C5E
00008E7E
0000CEBE
00009E14
0001CE84
00009596
0000E326
00002FED
0000C3C2
0000A60E
0000FF94
00003106
0000C7E8
00013148
00006F75
000066E8
0000AA50
00009E1A
0000C77C
0000B0E4
000061A0
00004DF8
0000CB2E
00006113
00011DF8
00011F98
0000D9CE
000081CA
00007A58
0000D1B8
00013EEC
00009334
0000B738
00007CF1
0000A29E
0000FDE6
000076D3
000061E5
00006090
0000A708
0000B074
000092AE
00005644
0000AC54
00006FB3
00007AFE
000060D6
00006E31
0000A3A8
000058A5
0000EBCC
0000911E
000059B7
00005BDF
000133E8
00006C2B
0000DF60
00005021
000146A8
00004C2C
000096F8
0000967A
00003F60
0000A274
00006540
00014BB4
0000E072
000063F0
0000E218
00003867
0000AB8E
00014034
0001080C
0000B5DC
0000C5B8
00007B6C
00008A2A
0000BD46
0000CA0C
000039F9
0000D020
00004670
0000B21E
000087A4
000042C8
00007685
00006A96
0000E488
0000B4B2
0000949A
00009052
0000F58A
0000A7AE
00008206
00009D9C
0000E644
00005614
0000A550
0000BCEC
00013098
00009396
0000B4BE
00023C88
0000B61A
00009046
00011D58
0000639C
00010E60
0000E23C
0000738A
00009F90
00005A2D
00005637
00008994
00007AEA
0000B34E
0000721D
00004B25
0000AC2E
00002931
0000710F
00007350
00008CF8
0000E058
0000A5A2
000094D4
0000AA92
000055D2
00009CA4
000038E0
00009648
000098F8
00005AE5
00007178
00007C16
0000EE04
00004E31
0000AF18
0000ABF2
0000ABF8
00006793
0000A68A
0000CD72
00016D54
0000B766
0000B238
0000D364
000025F3
0000DE2C
0000FCB8
0000AAD8
00008E76
00009E0E
0000CBD8
000137F4
0000BD7A
0000C0A2
00007307
0000B456
00002761
00008060
00002F20
000041DD
000056AD
0000CEB8
0000A926
00007688
0000CAF0
0000ACB6
000115B8
00009026
000055A1
00007989
0000B2A6
00003924
0001AE68
00015BF0
00012B70
0000B900
00006867
00009FB4
0000FE30
000037E6
0000E4A2
00006A58
00003DEE
00007A0F
0000F4E2
000043C6
00005433
000075AD
0000A956
000055B1
000109C8
00006CFA
0000E39A
00015A20
0000B0E2
0000C0E4
00007F0E
0000CA60
00034D80
0000A63E
0000B34A
0000C496
00003A5F
0000AB46
000060CA
00004058
0000E738
0000477B
000080B2
0000A512
0000A162
00003B1E
000099B6
00009F3C
00007B96
00012164
00014C74
000077A8
00012A30
00007BFF
0001A0F8
00009852
0000CC2A
0001A600
0000F9B6
000043E2
0000905E
0000D582
0000F63A
0000EC46
00003CC4
0000C4E6
0000952A
00003D02
0000FADC
00009980
00015094
0001ECCC
0000A560
0000313E
0000B016
0001CF88
000082B6
00014504
0000654C
0000BF12
0000D094
00005E8F
000099F4
0000D6D6
0000E912
0000B60A
0000DBCC
0000B658
0000BE8C
00003D05
0000EF4C
0000E756
00005C69
0000B2F2
0000956C
00004C96
0000562D
0000C6FA
000079FE
0000DF16
0000DF6E
