00120157
00175CD5
00173531
001721C1
0017235F
001728ED
0017391D
00160D41
0017392B
00171093
00174D11
001403B7
00171999
0016165F
001509EF
00171B21
00173983
001610F9
0017208D
00150C91
00172843
001738A3
00175915
00172B9F
0017376F
00160DD5
00172DE1
00161F25
0017345F
00161661
001743F1
00174B35
00161303
001616D3
001100B3
00175C1B
0016426B
001731BF
00172F57
00174B37
001741AF
00152091
00161919
001716ED
00162319
001719AB
00161A23
0013031B
001740B3
001511E1
00174EFB
00163067
00160DB5
00174277
001615D9
0013025D
00161EBB
001724FB
00171E59
00151297
0016143F
00171809
001730A5
00150FD1
001727D7
001613A9
001774DF
00162EA9
0016181F
0016603B
00151257
001738B9
00162189
001610E1
001405ED
001728D5
00160C6B
00175479
00161B01
00141135
001737F3
001725E1
00172C47
0014061D
00172CA7
001100EF
001729B7
00172D7D
001507B3
00173E83
00172AC9
00175627
00173939
001724F7
0013025D
00172EB3
001719ED
001716FD
00174A55
00163117
00161AE7
00150DD9
00171677
00160E6D
00130243
001753DF
00160D5F
001721DF
00173571
001720F3
0017204D
001100DD
001612B1
0012017B
00160BCB
00150A5D
00150ACD
0017200F
00172F2B
00176709
001646D7
00141A3B
00172FB3
00173463
001718E7
0016247F
00171DA5
00172961
0017397D
001507A7
00160E43
00151005
001740BD
001727F3
00160F1B
00172295
001616F5
001633FB
00172047
00160F27
00160E6B
00150B05
0016145D
001724E5
