00151BE1
0010004B
0017376D
00172421
00140AC7
001718D7
00172BFF
00150AAD
00172617
00161753
001776E1
001720ED
00120233
00173215
0012015D
00172EDF
0015098D
00172C4D
001618AF
00176B0D
00173619
00166875
00161985
00110111
00170E11
001631C1
0017489D
00160F8D
00153377
0014034F
00173271
00175DE3
00140CD7
0013042B
0012019F
0017530B
00150B9F
001506FB
00160CCB
001524D5
00150F01
00160CED
00161345
001764C7
001735A9
00150C25
00130471
00171AAF
00172131
00172137
001730C9
0016098F
00151917
00170E69
001507DD
00130717
0015213B
001405D3
00176919
001726D3
00172871
00140579
0010008F
0017356D
00172BA1
00173EED
00161763
00171D9F
00175E05
00150A07
001755AF
0017193F
00172ACB
00150DA3
001518EF
00164651
00161C8D
00161C11
00173A0B
00172801
00172DD3
001733AD
001409F7
00162EAF
00120105
0016101F
00162493
00160E4D
00000001
00174FF5
00161C01
001726D9
00162339
001748AB
00177727
0017275B
00160817
0017003B
00150D63
00161957
00150969
00173285
001619B3
0013091F
001517F9
00173ECD
0015217F
00130255
00151895
00175959
0015038F
0014065B
001306E5
00172D5F
00173949
00130445
001611AD
001515DF
00140EEB
00140F39
0016170B
001742AD
00173513
0015091B
00172F75
001638DD
00151219
00171461
00175FD7
00172DF5
00160811
001409E9
0012014F
0017117F
00140483
00172A07
00175DF1
00161FD1
001727F7
00174A77
00150D39
00164407
00171D55
0015150F
0013030B
00172931
0014261F
00172A43
00175515
00172C77
001614B1
0014097D
00173681
001618A5
00163947
00160689
001727EB
00176119
00161D37
00163591
0017220B
000F0029
00175DC9
00173AB1
00172E6F
00162CEF
00130A0F
00151135
00162559
001000E1
00140393
0017698F
00161051
00150D23
001736FB
00120367
00172579
00172B1D
00172D01
001769BD
00161895
001509D9
001516C9
0017365D
001754B3
00140433
0017582B
00161181
00165E6F
00150C17
00150CC5
0017448D
001304BB
00173E1B
00176909
00174011
001202E9
00173589
00172D13
00172943
00130121
00161A29
0015126F
00151241
001717C5
00171735
00173D13
00150B91
001646B1
00161C17
001725A1
001772A3
00174857
0017296D
001622F7
00177FE7
00130635
00177E83
00172CD7
00161FDD
0016284F
0015116B
00164CD5
00160FBF
0017382D
00173435
0017375D
00161179
00150A49
00161223
00175B05
00173EFD
00177E11
00140647
00175073
00150A83
00162931
001623C3
00172991
00172E69
00150933
00172F9D
0016116F
001726F5
00173CB9
001627CB
00174A67
00172FB1
00174F3F
0016484B
001722FD
00171C4F
001403B1
001621E5
00176A8B
00172711
001614D9
00150A5D
00172E91
00177139
00172C15
001303F5
001719C5
001302BF
00153A01
001723CF
00161B15
0017384D
00151969
0014060B
0016160F
00140951
00174E61
00150541
001723AD
00175E83
001100AD
0010005F
00150829
00172D19
0016148F
001718C1
00171519
00170EF3
00161F69
00172567
001613D9
0015133B
00140675
00160D43
00171CCB
00161B3D
00150A51
001623A9
0014054B
00161651
0014088F
001616D3
00171DB1
001618C3
00110141
001407C5
001617B1
001725E1
00161863
0017324D
001508B3
00162D89
00120355
001509EF
00176397
00173397
00150A81
00162389
00174A31
00171F2F
00162119
001508DB
00171BEB
00150E7B
001402AD
00173713
001740A7
00164281
0016166B
001745DD
001727FD
00172A47
001620A1
0017240D
0017276D
00162695
00171E99
00140F49
0017495D
00172F1D
00171639
001510EF
00171519
0016136D
00162DC3
00130733
00165CE7
00175F73
00172329
00172989
00150D91
00171691
00160C71
001620E7
00173035
00163885
0013024F
00161887
0017377F
00161625
00173A1B
00162609
001512CF
001516F9
00176CBF
00175D07
001725F9
00171847
00173A29
00172D47
00162D93
00161A77
001759C5
0017295F
00161F73
00173351
00175F6B
00171A8B
00140DE3
001623A9
001745E5
001509C7
00172C55
00150C39
00151099
001741DF
001641FD
00151CED
