// [DW-CONSTSHIFT] node_conv_860_scale.mem -- CONSTANT-SHIFT format.
// slot[30:0] = mult' = mult << (23 - shift)   (was {shift[21:16], mult[15:0]})
// consumed by node_conv_860.v: v = (biased * mult' + 2^22) >>> 23
// regen: scripts/build_spatial_scale_mems.py (auto-detects the [DW-CONSTSHIFT] RTL marker)
000026E0
000150E8
0000350C
00007780
0001045C
000041DC
0000A21E
00004387
00004E9D
0000543D
00002CA3
00004561
00006CE6
00005AA1
0000A59A
0000621A
00003A3E
000041CB
000050B6
000075EE
000067C0
0000377C
0000D4B2
000055D6
00008E0C
00006BA0
00002C5C
00006B3C
00005DEE
000031D7
00004D2D
00005735
0000657A
0000A852
00004C00
000032E9
0000340F
000045AE
0000AD48
00005459
000076E9
000080AE
00006122
00007B17
00008990
00007D90
000053CE
0001CBF0
0000925A
00003534
000061E5
000032E9
00005BD5
0000404C
00005B66
000023D1
000076D8
0000366F
0000739A
00007F61
00005C07
0000C884
00006B4D
00003070
000052E5
000053EC
00002E60
0000634C
00008746
00004057
00005569
0000651A
00003E70
00008C50
000049E7
00001CF5
000084E0
00004945
0001BC4C
000058CF
00008398
00009C14
00004137
0000526F
00007F45
00009246
00006A2E
00003827
0000765A
000028C3
00005786
000064D8
00008732
000086D6
000026D5
00008F26
00005851
00003A36
00009086
00008708
00008B7A
00004E9A
00012124
0000ADE8
00015858
00006273
0000407F
00004C48
00007045
000075A2
000042DD
0000875C
00006234
00006984
0000817E
00006A98
00004699
0000657B
00003E96
00009BE8
00003E4C
0000651F
00008FE8
00007267
00005CC9
0000DF96
00004270
00009008
0000296E
000046A2
0000396C
00001CA4
00003613
0000657A
00008262
000090E8
0000557E
00007C9B
0000C2A4
00004401
00004361
00005343
00008162
00007406
00001C02
000050B9
00004C8B
00003534
00001CC1
0000920A
00004E2A
000020B6
00007F20
0000AF28
00004097
0000650E
00007407
00004A44
0000736A
00002886
00005FD7
00006638
00009450
0000A4CA
00002D99
00005D24
00008B9A
000060E1
00008E16
000094C0
00009E5A
0000727A
00011CD0
0000528C
00007A42
00003BF6
0000695E
000065EA
00001B4C
000046E7
00006CE8
0000B8BA
000079BD
0000850C
00002D07
00005473
00005F9C
00004724
000074D1
0000A434
00004467
0000A6C2
0000565B
0000D580
0000220B
00004456
0001231C
0000766C
0000E046
00005471
000054B5
0000A5B0
0000417A
00005A81
0000CC08
0000396E
0000419F
00008C38
0000B164
00002F0D
00005279
0000560A
00008A00
0000B068
00008326
00008620
00006589
00008946
000026BE
000080D6
000064A8
00003858
0000640F
000052BF
000080E6
00004270
000079B9
00009198
00009532
0000512C
00001323
00002FDF
0000D556
0000997E
0000BEF8
0000792A
00006E89
0000AD08
00004E9F
00002D22
00006278
000046B9
0000599F
00005110
00004976
000031D9
00004CAF
000023BD
000053ED
000099FE
00003DD3
0000AB8C
0000504D
0000FA80
00006130
00006F5E
00006C71
00005080
0000E068
000042A1
00005B7D
0000571B
00005DF5
00007374
00005366
00001DE3
00004AF7
00007DE5
00003926
0000D2DE
00009924
00008014
00008788
00009B6E
0000542A
0000596A
0000401B
00007E46
00005AAD
00003E3D
000077EC
000046D9
0000881E
000045CE
00002DA1
00006D10
00006744
00007601
00007ECD
0000CC28
0000372A
000070DC
000077A8
000029A1
00006DA1
000094B4
00001928
00005147
00004460
0000188F
00009F7E
0000D988
0000944C
000076D0
00008BDA
00003CFC
00004D6D
0000422C
00008476
0000585D
00013D30
00003600
0000775F
0000882E
000028C9
00005A0A
00006A40
00006977
00004D3C
00004274
00004F2D
00008EDE
00009A38
0000AEAC
0000CE50
00005BD1
00002308
0000373A
00800000
00008B62
0000B30E
000053D5
00005FC9
00004ACC
000039A5
0000547B
00005172
0000224A
000054BC
0000CDD6
00004CCF
00007140
00005394
00003265
0000242B
0000A572
00003DA6
00005BF2
00005188
0000698C
00008556
00022100
00007FA8
0000284A
0000A0B0
00004148
00002F8F
0000A472
000026F8
0000FFEC
0000875C
00006F52
00008F04
00005DDB
000033AD
00004CD8
00013648
000035C9
000026BD
00009F2C
00002AC2
00008B9C
00001073
0000413D
00001004
00004690
00004CDC
00005F72
00004FEA
000041C8
00007451
0000D6EA
00002A4F
000076B3
