// [DW-CONSTSHIFT] node_conv_902_scale.mem -- CONSTANT-SHIFT format.
// slot[30:0] = mult' = mult << (23 - shift)   (was {shift[21:16], mult[15:0]})
// consumed by node_conv_902.v: v = (biased * mult' + 2^22) >>> 23
// regen: scripts/build_spatial_scale_mems.py (auto-detects the [DW-CONSTSHIFT] RTL marker)
0000718B
000077FD
000038F8
00008236
00006344
00002477
0000BB86
00004B25
000036A4
000051D4
0000545A
00004D67
00008342
00004A2F
00002B42
0000A50C
00005EEE
0000A188
00005069
0000928A
00003163
000022AF
0000BA54
0000A25C
0000132C
00009BC2
0001040C
0000A49A
0000481E
0000294F
00006A01
00008F12
000059E0
00002F90
0000439A
0000A6BC
00007FEC
00004E4A
000084E2
00000B0A
0000431C
00005EE7
00001F1F
00008CBE
00004D30
00004C04
00002DC1
00002E18
00005B21
000015B4
00002B28
0000776D
000033A0
00001E55
000081D4
00004BB9
00002C86
00004AB6
00003E35
000064A7
00006F6C
00002107
00006AC2
000094B6
00003652
000067C6
00002375
00004A1B
00002A21
0000497E
0000399C
000085DC
000074A1
000040C6
00001F15
0000163F
00005AB7
00002346
00003A88
000037EB
0000680F
0000223E
0000353E
000037DC
00005DA7
000043D9
0000AFA8
000052C1
00007885
000060CB
00009D4C
00003D2F
00006AFB
00004168
00005159
00009852
00003C19
00003BC6
00005DBE
000022FF
00009B7A
00004695
0000B374
00007B79
0000945C
00005B6D
000047EA
00006C89
00002521
00006E2E
00005390
0000337A
00006EC4
0000A92C
00007899
00003883
00004A38
00001D0A
0000A668
000051C9
00003BF4
00003FBC
00004525
00004C61
00004013
000042FE
00007240
00004304
000014AF
00025978
0000A70C
000053B7
00004F55
000068E0
00007C9C
0000524E
00006D9F
00002BE4
00005388
00005B6F
0000F982
00002722
00005BC5
0000B2F8
00003B08
0000250D
00002E4B
00009DB0
00005A4C
00009BEC
0000411F
00008D38
000043F6
000037BA
00009C78
00001CBA
000036E8
000083EE
000024F2
00004DC5
00004656
00009D96
0000A448
0000187A
00004702
00001008
0000B216
00008298
00005548
00006039
00005A34
000023F1
00011DBC
000036D0
000023FC
00004CD1
00006F21
0000A56C
00004B29
000042E4
00002F46
00005BFC
00009B18
00004BE3
000079CF
00003AEF
000032A0
00005E95
00006B91
00009A60
00001AF6
00001F2D
0000362A
00002A1B
00004397
000095AE
000073E6
000012C5
0000399D
00004B5A
000046D2
00004B41
00002798
000079F6
00016E50
00003402
00002125
00003360
00008D62
00008276
0000301D
00003EF1
000027BD
00007A26
00002FA7
00009A94
00004CE8
00006769
00006637
00004240
0000BDF8
0000635C
00005F4F
00002FDC
00001F72
000039E6
0000BC34
00001808
000033C1
0000451E
00006E29
00008AFA
0000472D
00004017
00003A64
00014C2C
00009E86
000097BA
00006DD3
00005E38
000038C5
0000E726
000086CA
00001C88
0000888E
000025CE
00005990
0000622E
00005AB2
00002A39
00003B32
00003A0E
00006408
0000A2A4
00001D8E
0000309D
000044D4
000060F0
000045DD
00006939
00003146
000090EA
00005829
00006532
0000ACE8
000054B7
00003486
00005158
00017BCC
00006424
0000D114
00008F88
00001207
000014F8
000012ED
00006AB6
00004900
00010814
00003009
0000B9CC
0000DFEC
00000ADB
00006F4B
0000B304
00001DE9
000060DC
00002BEC
0000A51E
00003150
00001C5F
000079C3
00004F7F
0000C4CA
0000392D
00004F5B
00006A78
000075DE
00000C44
00006FF5
00005C18
00008AE4
000015B5
000038E0
00007481
00009E8A
00005FE7
00003A83
000041E4
000071EF
00008F3C
0000A2A0
00001F98
00002018
0000D5A6
00009F1E
00006B52
00001E6F
00010258
0000BD78
00005C15
000082B8
000045A2
00002C89
0000391F
000018E5
0000903E
00004C99
00003533
0000DB68
0000A290
0000BE22
0000406A
0000519A
00000FDB
000040A9
00007AC3
0000372C
00008FD8
00003C2C
00008DD6
00005534
00005F75
00006E44
00002537
000045EF
00001DDE
000048CE
000025D5
00005984
00005F31
00005F1B
00001C2D
000063A2
00006BBC
0000363F
000091F8
00007190
0000C550
00005557
00007C43
000054AF
00001BB9
0000503A
00006B3C
00007842
00003CE2
00004E0F
00003997
0000411B
000058F1
00004305
00008C78
0000627E
00008986
00003829
00000E30
00001C3F
0000D5C0
00017BC8
000049C5
0000A18E
00007CA9
00009F0E
000049E4
00005CAC
00001962
00002B99
0000D4CA
0000849C
000031F1
000063B0
000015B6
0000234B
00006F57
00004006
0000230A
00008E1E
000043F3
00000E0C
00001944
00006714
00005219
00005B47
00008EA8
00002372
00002215
00003F8B
00003D44
0000968E
00006746
00002E44
00002C2B
0000108E
0000393C
00002477
00006187
0000C986
00008D0A
000029C9
0000A710
00003176
00003336
000085B8
000070E4
00008CE2
000014AA
00007A9D
0000559E
0000A848
00005759
000061CC
000044A4
00004718
0000DA8C
0000E368
00000E22
000032E3
0000651B
00005E9D
00006A78
00007041
0001184C
0000115A
00001F2A
00003E37
000086AA
000041C9
00006B46
00008532
00005156
00009E64
00007077
00009D76
000029D8
0000A348
00004FBE
00002B1D
00003DC3
00006436
00003B06
000070C4
00004981
00006C51
00005318
00000CC7
00012910
00007CED
00001A33
0000AFE4
00002FFC
000040E8
00006E61
00003F0C
00004987
000043D8
000075DF
00006A4D
00009AF0
00003182
00005F09
0000A586
0000A85E
000071EF
00004690
0000FC08
00007962
00002543
00002D2D
00005B94
0000289F
00002CB7
00004DA2
00002AF2
00003B69
000023D7
00009300
0000643A
00002CC3
00002CB1
00001056
00002E81
000026D3
0000AF8E
000031D1
00006204
0000346C
00003588
00005E55
00004190
00005B27
0000DF5C
00002851
000056EE
00007772
00007D6B
0000D328
00005D6E
00005B90
00004399
00009500
00003F6B
0000183D
00006F39
00001DF3
000084D8
000012B8
0000F438
00003A3A
0000620C
00002457
000080FE
000069ED
00005E03
00003DE7
000014EF
0000342A
00004B91
00009566
00007FA5
0000418A
00004275
00003A43
00008E66
00002274
00007F21
00002D6C
000030DC
00002B61
0000347A
00006820
0000A31A
0000751C
00007343
0000495C
00005483
00004CE5
00003EDB
00006384
000034E2
00006FF2
00006674
000017D4
00005952
00002184
00004D3E
000028CE
00003F76
000077D1
00004375
00003130
000028DB
0000A0B2
000048D8
00003D62
00008276
000073E3
00007460
00004905
00006CD6
00003A6A
000065B5
00002D40
00006F48
00006FF1
000050B0
00008662
00009A1C
00003AB2
00001D9A
00004E2D
0000530D
00001FCE
00006BA6
000055D7
0000371C
0000443A
0000765B
00010FA0
00008D32
00007BC9
00009D5C
00002EFB
00003F54
00009B72
0000DE92
00003CF3
000017F2
00000CF8
00007DA3
000075EF
0000299B
00001195
00003DEC
000093C0
000025F5
0000139A
00007D94
0000673D
00002AF1
00003688
00006B81
00004098
00004BCA
00005C03
00004E83
0000673E
00004F5B
0000864E
00000E73
00000C59
00002901
00003CF9
000037AB
00005107
0000704B
0000957C
0000822C
00002363
00006BDC
000025BB
00008F7A
000050DB
00004998
0000410D
00004CE1
00008308
000072BB
00006621
00001583
00006A66
0000A1A6
00003B48
0000762D
00003E0D
0000163E
00007693
0000740E
0000668B
00003F0D
000425B0
0000DC0A
000050DF
00001FBF
00003E59
000074A4
00002283
00003B50
00007BF3
00002864
0000787F
0000157A
000062EC
00009750
0000627E
000057BA
000028BE
0000201C
0000944C
00004580
0000574B
00005AC5
00002D6D
000063BC
0000471F
0000670F
000042E7
00001A82
000035A8
00006A37
000039FF
00002E27
000011D5
00003775
00004481
00004187
00003BF4
000049D4
000078FA
00007A67
000030AF
00005CBB
000010BF
00004810
000035D4
00008322
000026B7
000027B5
00007A46
00008E3C
0000493B
00000DB2
00006178
000065D7
000057A9
00007AF7
00003A68
000078E1
00001CB5
0000569B
00006E69
0000B9F0
0000A47A
00006800
00002076
00003A63
00006D50
00007EF2
0000331F
0000FE1E
00001E74
000035F8
00006F09
00006028
0000734C
00007B6C
00006B42
00008ADC
0000454D
0000271C
00005F22
00009BF8
00003E72
000038E1
00002E9A
00004749
00008A48
00003B0B
0000F4F4
00005E36
0000F034
00004DF6
0000A124
00000C9E
000034EF
000050DD
00006D11
0000BEF6
00006ED0
00002202
00002872
000057C7
000028A2
0000AD06
00002C07
0000C1B4
00009958
00001F84
000010AB
0000451D
00006DF9
000028FB
000082C8
00003376
0000621B
00004223
00003135
000042FF
000053E6
00005221
00006E55
000087BA
0000671A
00004386
00006442
000036FC
0000308A
000096DC
00008A80
00005530
00001340
00004823
0000B0A2
0000F67E
0000174E
00004A68
0000595D
00003A89
000087CA
00003AE9
00003209
00003244
00003495
0000C3CA
0001BE84
000079B2
00008F64
000082E6
00003AC5
0000080B
000042F3
000080AA
00004C8E
00001DB2
00005244
00009F96
000077F9
00004FFD
00004D79
00007204
00002309
00003374
00001943
0000554C
0000657C
00004C6D
00005D3F
00004151
000061B8
000013CA
00004FD2
00006651
00009478
00006309
000076FE
00002F30
00008A64
00005407
00002227
00004BB3
00003CE3
00007BBD
0000437C
00004900
00007309
00003701
00006DE3
00003BE6
00006477
0000161A
0000423C
000040BE
00008A94
00003CC6
000031D2
000046D5
00007FF2
00005DDA
0000544F
000090C8
00006FEA
00002024
00009FD4
00008AA6
00002018
00006034
0000250B
0000ABFC
00003627
00001A4A
00008320
0000494A
00025060
0000443A
0000380E
00002044
00006D16
0000698A
0000389E
0000DE1C
0000536D
00003366
000075CC
00006D9A
000086D2
00005A8B
00003949
0000664D
00009766
00003B84
00001A14
00002B97
0000B042
00003742
00008A62
000027F4
00009746
00004625
00002818
00002426
00008262
0000477D
00006F89
0000662A
00005AFE
000029A6
0000A83A
0000372F
00006F78
00002815
00004705
00003D8D
00008564
0000323E
00003140
00000F07
00005722
00000C71
00009902
000082F6
000062DF
0000239E
0000668C
000079EB
0000706D
00001CAD
0000713B
00001C33
0000264B
0000139F
00006FE9
000049DD
000030E3
00007C3C
000052FF
00002278
0000299C
000067A0
00002CB3
0000AED4
000054AD
00001D9D
00009E26
000057D2
000050A1
00007C93
0000582A
000024D9
0000464F
00007FCB
00005829
0000707C
00003AAA
00004714
00001CDB
000014B9
000080A0
00003291
000038ED
00002103
0000AA42
