001506FB
0017386D
00163A8D
0017253F
00161B65
00172EDB
001716E3
00150E7F
00172C75
00161F89
00160DF3
00171C5B
00171881
00174B41
00150DDD
00175FB5
00160EDF
00160C3D
00176279
00171FF1
001617DD
00172213
001766E1
0016095B
00160CB5
001404AF
00172123
001302B9
00173261
00140C77
00150809
00175231
00174B17
00173177
00173595
00150B4B
001506CB
0015071B
00162FB5
00173FCD
00173785
00171BB1
00150B5B
00171A8B
00150617
00172777
001506A7
0017345D
00171007
00173EA9
00150D73
00160EAB
001521F9
00173E51
001511C5
00161EEB
00175919
00163121
001405ED
00173B79
001301EF
00161243
001722EB
001302DF
00173DBD
00140365
00140427
001722E3
00161AF7
00173061
00151A07
0017284D
00151639
00164349
00172715
00172D8D
00172861
001725B5
0011010B
0015076D
00171EB7
001402DF
0015126D
00173511
0013031D
00172D61
0010003B
001728DB
00172243
00171ABF
00172657
00173EC3
00172A17
00160BFD
00151A99
00174B49
00174B63
00150C85
001735B5
00140AF9
001505DB
0016117B
00171C79
00172A87
00174E8B
00140309
00174AA1
00172415
0015065F
00172633
0017479B
001609A5
001719A1
001734A9
001756B5
00172889
0017256D
00160D8B
00160DD9
0010006F
00171D49
00160D99
001719F5
001505DD
00173947
00161C6B
00110081
001404E5
001741A1
00174A69
00161203
00172C39
00172DBB
00162B11
00150E6F
00171965
001749E9
001757C3
00171BAD
0015079B
0017380B
00171F0D
0017134D
00150AB1
00175D61
001402EB
00130429
001716E7
0016355B
00160D2F
001640EF
0017203F
00176957
00172E1F
00175941
001505D3
00171B81
00172BAB
00173F6B
00161D57
00171E71
00172F09
00176445
001743C3
00173225
00160E57
00152089
001611C7
00151403
0017223B
00173F1B
00171627
00174149
0016336B
001756B9
001514ED
0017302F
0015072F
001403C1
001405A9
00162037
00172113
00160D3B
00150E4D
001712C5
001737AF
00150E37
00150E0F
00151347
001201FB
00151E3B
001619DD
00161839
00173C89
00130269
00160B07
00171E19
00172365
00160DEB
0016269B
0017320F
001751D9
00162B49
00140539
0013027F
001732B7
001612CD
001621F3
001738B5
00130199
00161D2B
0017331D
001510D1
0016161B
00140657
00150F1B
00120109
00160F19
00140A71
00162D19
00173F31
00173B1D
00150E31
00161B05
00160F47
00171E31
0016155B
00161333
00150C41
00130371
00173AA1
00175259
0016102D
00171EBD
0017152F
00171F39
00150AB5
00173BAF
001741DB
001618CF
00150843
00174631
00173D43
0017166D
00172657
00160DCF
00174AA9
0017583B
001718EF
001615A7
00171CFD
00161583
00140597
00174FDB
00161B41
00176DE7
00171D29
00171C37
00140279
001301C9
00173889
0016132D
00162965
0017193D
00150851
001623A1
00172CC7
001405C7
001716AD
00171B61
001200C7
00161FED
00140BA1
00171941
00150D6B
00140685
0017768D
00160F77
0016203B
001726B9
00160E31
0015073D
00171F83
00160DA1
00160B53
00173F17
00171F77
0017284B
00175909
001614C1
00160A07
001617F7
00175583
00161A1B
0015130F
00173C93
0017367F
00173F73
00174589
001722DF
0017172D
00172B5B
001752B5
0017329D
0016080B
00150FD7
00162851
00173429
00173DD3
00172A7F
00174351
00173BD3
00161B5D
0017263F
00173D93
00140383
00171E03
00161127
00173731
001727CF
00175E63
00172AF3
00130403
00162333
00160D1F
00150DFB
00172F13
00171C49
001614DD
001720A1
00172075
00161C59
00160C4F
00161221
00160B85
00173D8B
00161BB7
00175C01
00171C01
0011007B
001201D3
00172B09
001724AD
001754BB
001748D1
00160F9B
00175719
00160BB9
0017759F
00161BE1
00163395
0017182F
001614FF
00161313
00171AB3
00140719
00171BAB
00161625
00171C45
00172A2B
0017562B
001739CF
00172EED
00174053
00160BAD
0016156F
0017166F
001506BF
00160CCD
00171E47
00171EED
00120309
00160A9D
001628AD
00174919
00161845
0013022F
00161949
001611C9
0016208F
00175F13
00171B71
00173591
00176D07
00161C39
0017462F
00174825
00151213
00140827
00172D05
00171DC1
00171A05
0017289B
0017213D
00140CF3
001726CF
00175E0B
00160DB1
00172DE1
00150C71
00160F99
00172B03
001733A3
00162E7B
00160DAF
0017407D
00150841
001406C7
00171D57
00174377
001719E9
001737F7
00177D4F
00120351
00171B59
001611C9
001403A1
00172085
001737C5
00175A03
00120119
001614D3
00160E11
00171B37
00172B2B
00173A15
00171893
001758ED
00172C9D
00175829
00160BEF
00140349
001720C1
001723CB
0017176B
00150DDB
00150745
001403EF
00175AC3
00160B75
00173433
001746EF
00173A47
00173537
00171AC7
0017121B
00160C79
00171AC7
00161F87
0016193D
001618D1
0017194F
0015058B
00171811
00160DFB
001405D3
00160EC5
00171C55
00163B29
00171D13
00161BBD
001404DB
00171BC1
001744C1
001729E5
00174067
00171CC7
00174D4B
00161D23
00160DD5
00173D79
001504FF
00161D57
00171AD5
00174E13
001721C1
00161029
00171AB3
00172AB3
00172CFD
00130411
0015189D
001202F7
00160D15
001732D5
00171BF3
001719BB
00173299
00171451
001735BD
00172E8D
001712CB
00161757
0016293D
0014083B
0017221F
00173A0F
00160CD7
00140C35
00171A9D
0015109B
001200B1
00172CD3
001734F9
0017480B
001100CB
00171841
001511CD
00160F1B
0014091B
00160D15
00161D95
00166701
00172F8F
001507DB
001752E5
001748B3
00150643
00161081
001737DB
00130171
001000A3
001100B7
0016171F
001100B9
00171491
001721DD
00140309
001623AD
00172ABD
00150D39
0016391D
00173FAD
00150CF5
00173C01
00160E2F
00160D5F
001719C7
00130251
00161159
001616A5
00173F87
00150FBF
00171D33
001754D7
00172BF3
00171B41
00160CF1
0017245F
00150DAB
00150EE9
00171295
001614EF
0013041F
00161D31
00151853
00161AA3
00172283
00173179
001611BD
00171813
00171E05
001609B3
00150563
00160E4B
00173B07
00150703
00171B5F
0017326B
00172215
00161A15
00130225
00130309
001744AB
001720F1
00174809
00160CC3
00130241
00130841
00174DDB
00171F89
00171AD9
001719CD
00161AD3
001714D5
00161471
00173569
001200D9
0017419D
00173B0B
0016155D
00151859
00150767
0016391D
00161DB7
00150735
0017384D
001745FD
001613D7
00150E6D
00171313
00173A0F
00150C7F
00160AA1
00175213
00171CB9
00150D45
00150A69
0017265F
00150D85
00160EDF
00160D87
00171B95
001506F1
001721CB
0017157B
00162C53
001508B1
00160AB9
00150D85
0017311F
00160FFD
00100081
00166425
00173CD3
0012020D
00120183
00160E0B
001618ED
00171F83
00171927
00161321
0017346B
001402D9
00160AA1
0013026F
00173C27
00172023
00174A2F
001301AF
00140DD9
00161517
00175559
00150A8F
00161AEF
0016172F
001756FB
00171AAB
00171CA7
00171BB7
00173D41
001201BD
00161ADF
00173EFF
00171587
00150A33
00161863
0013024D
00151385
00175BED
001507CD
00175A4F
00172423
00161925
00161EED
00161CFF
00173D4D
001607E9
00172E7B
001739E9
0016352D
0015110D
00172BA5
00160E85
001610B1
0017230D
00174B87
00161B3B
001506C1
00172DD5
00172CFF
0017318D
0017599B
00140491
001504FD
00150595
00174551
00161B19
0017181F
00171F2B
00172625
00160A9D
0016099B
00173009
00150F6B
00140565
00171B69
00171869
001626AF
00175D77
00174B43
00173F8F
00160B4F
00140317
001301CD
001612E1
00171853
001303A3
00160BA3
00171AFF
00171C6F
001404C9
00151245
00120173
0017512D
001623FB
00175893
001508FB
00177BBD
001505EF
00171241
00161069
00176177
001718F3
00161A07
000C0003
0013016B
00100065
001614D5
0013038F
00171CB3
00177DEB
001736B5
00171B27
00172C9D
00140281
001506CD
0016128B
00162385
001624E9
0013083B
00173EB3
00163311
00174C43
0014053B
00140537
00162CA7
001515FF
00171D9B
0017428D
00171A19
00151325
00171B4D
00176095
00171C1B
00110091
001762F1
00173CB1
00172165
0017448B
0017196B
00161FC9
001713F1
00171485
001731B5
001621A9
001505DF
00151B2B
001721D3
00173A5B
00161F7D
00140831
00172F85
001617C9
0017293F
00140485
00172AC9
0014053F
00150627
00160B95
001611EF
00140677
001755E3
00171A65
00171BE7
001730BD
00171A8F
00172C09
00171E2B
0017203F
00171753
00173447
00160BE7
0017190D
00175ABB
001508F5
0017275D
001715F3
001508C5
0015071D
001718E9
00162225
00161BAD
001721E5
00173155
00172BE3
00150E2B
00173C33
00172497
00150BF3
0016264B
00173E77
00150849
00173891
0016142F
00160F0F
00161AE3
00172175
001100B3
001722DD
00171FF3
0017344B
00172897
00171C4D
00171497
001505ED
00161AA3
00161669
00161933
00171D7D
00160E45
00172C77
00140571
00171925
00161BE7
00175FEB
00160F37
00171ACB
0017496B
0015138D
00150C71
00160C85
00173743
0016127D
0015067D
001628F5
00175841
001734A9
00162451
00175DCD
00150E59
00171BCD
0016179F
00172113
00160E85
001743AD
001505DB
00150C71
00150B47
001727A3
00100075
00150DBB
001506A7
00171817
00151193
00172CC9
00171FDD
00161F25
0015078B
0014048D
001513D9
00161FBD
00150BB1
001715C5
00151275
00162CB9
00161619
001675D7
00172AED
00130149
0017482D
00175213
00150A97
00173C5F
00173011
00171EA3
001735E3
001513B9
001747D7
001735F9
0016191D
0013025D
0017332D
0017746D
0015053D
001303BB
00173121
00171C07
00150F1D
00172A0F
00160DA9
0012025D
00173E3B
00150825
00150AA9
00161CA1
001722E3
001506F7
00160F41
001304C3
00173011
00171BF1
00150A67
00172A75
00160DFF
00173DB7
00160D75
00176937
001730FB
0015078F
00173591
00174505
00174697
001200EB
00171AF5
00171477
00172A7F
00163207
0015089B
00173395
00173245
0015056F
00172FC9
001610AF
00153799
00173199
00175779
001733CD
00160E25
001615B3
00171B13
0017612B
00160E09
00171903
00161E3F
00172B3D
00173435
0013028F
0015246D
00160FAD
00171E71
001739C1
001751F5
00150E2B
0014054D
00171FB7
0016197D
00171C61
00140359
00171B5D
