00172F43
001641B1
001658C1
0016168B
001713CF
0017401F
0016287F
00173635
00160F6B
0012067F
001645B1
001614AD
001768BF
00132789
001634E7
00163C13
00172E5F
00177883
00140B1B
001731B1
00172BD7
00173761
00165955
001633EB
00175A97
001735A1
00150F75
00162FD7
001551CF
00140711
00140963
00162BD3
001733A1
00130903
00176E03
00162745
00162545
00176E05
0017441F
001409AB
00173163
0016148D
00175FF7
00175B67
001644E5
001735FD
00170EE5
001775E3
00175447
00173FA3
0016135F
00130B71
00177609
00161D75
0017552B
001735D7
00151853
00162447
0011011F
001301E1
00150BF7
001728A1
0013047B
001616CD
00173201
001513BD
001614AB
00161B43
0014069D
00151C2B
00120211
001621E9
00152227
00162ED7
001769E7
001519D1
00173A55
001512DB
001770C9
001639E1
00163067
00174DDF
00176F87
00174689
00175A31
0016470F
00162CF9
0016170B
00141321
00171D31
00141BB9
00173BED
00151723
001771A1
001776E9
00130431
001745F3
00161927
001711ED
00161807
001724BF
00130B61
001734FD
001514C3
00172C33
00151365
001729E5
00163CC3
00173AE3
001768F1
001746F9
001760E1
001728CB
00171EBB
00161863
0015451B
00161447
00150B5F
00161EF3
00161B01
00171CD3
0016392F
00160B6F
001622B7
00175F07
001633AD
001744FB
001102A1
001101E5
00150D21
001626D9
00166263
00163393
00175BC9
0017360F
0013160B
0013085D
00175B15
0017196B
00174B39
00174C31
001622F1
00176A7F
00150D4D
0017417F
00176245
001410FF
00161F87
001614CF
00151A87
00162975
001624ED
00151041
00150BB7
00150D79
00172793
00174D33
0015406B
00140DF1
00161121
00176373
00161125
00150DC7
00150F55
00154587
00130415
00140EC7
00141A69
00151E65
00160AB3
001511BF
00165841
00160F3D
00172F41
00176007
001511C1
0015142D
00151B3B
0016238F
00162107
00174227
00176331
00120B4D
0014077D
00100051
00171E25
001766E1
00175D8F
00161ABB
00151299
001629F5
001769CD
00162497
00161E11
00173379
00130583
00173C81
0016191D
0017308D
00174B49
00164B37
00171FE1
00141517
00120355
00142CCF
00150E59
00110193
00173027
00141C6B
00167EDD
0017446B
00176AC9
00140CDF
00174443
001521B9
00174763
00150701
001764EB
00140615
00172EC7
00164837
00151225
0015229D
00165E8F
001624F3
001402D3
00176271
00174329
0016260D
001645B7
0015141F
0016126B
001511C9
00140455
00153977
0017297B
001748DD
001620BD
001757CD
001743C9
00142469
00175C0D
0017546B
001406E9
0013034B
001515AD
00176F2B
00175AAB
00174DE5
0016655B
00161457
00174EE9
00162CE3
001760D7
0017607D
001755C9
00174E91
001728BD
001203A3
001508F5
0017251F
00171C17
00171BBF
0017589F
00173DFD
001620CF
001743D5
00161E49
000F0057
00173FB7
00140AA1
00140A2B
00162E01
00175511
00162F19
00150E07
001746E5
00150D9B
00162B47
00161677
001710F7
00120527
00150BC7
00151155
00172239
00150BC9
00151ED3
001629F7
00152415
00176103
001402DD
001622EB
0017446F
0017423F
00173FDB
001748D9
00162911
00150C2F
00177407
001747A3
001769C3
00174F8F
00175E99
00173FEF
001724B7
001303FD
00174A27
0015260B
001758DF
00161A37
0017643F
00130811
00173E01
001750A5
0016435B
00164D49
001610EF
00163C9F
001413C1
00174D57
0017573B
00110275
00161989
0017493F
00140CFF
00152F39
0017577D
00164449
00161CFB
00162F05
0014126B
001627B5
001748A7
001754A3
00177207
001533BF
00162081
00141DB5
00150C6D
00175FE9
0017299D
001765BD
00163FE7
00173CFF
00140B37
001733D7
001730D3
00160F95
0012021F
00150FE3
00163589
00175A75
00155773
00171A53
00177E99
00162615
00173E3D
00173351
00151459
00151C09
00172CA3
00176023
00175A03
00150969
00100035
001633AD
00171C9D
00130303
00151133
001203F3
00173C03
001622FF
00172213
001713EB
001727A3
0016441F
00130B0F
001415CD
00173FED
001637F1
00140BC1
001657D7
001724E3
001516F9
