// [DW-CONSTSHIFT] node_conv_842_scale.mem -- CONSTANT-SHIFT format.
// slot[30:0] = mult' = mult << (23 - shift)   (was {shift[21:16], mult[15:0]})
// consumed by node_conv_842.v: v = (biased * mult' + 2^22) >>> 23
// regen: scripts/build_spatial_scale_mems.py (auto-detects the [DW-CONSTSHIFT] RTL marker)
00016878
000069DF
0000767F
00008016
00003580
0000868C
00005FAD
00006D52
00008246
0000709A
00004FC4
00008214
0000B93A
00005460
000049F5
000032E6
00009534
00007852
0000406F
00006B98
00008A88
00001047
000131A4
00001F9F
00007CF3
0000A220
00003ED4
00008668
000055EC
00004D9E
00008786
00001AAC
00005FF2
000028C4
000061E0
0000BE7C
00006222
00004F28
00002D87
00005A62
00008048
000043E4
000031A1
000032DD
0000388E
000055E1
00006655
0000AD4E
00005E02
00006047
00003107
000077FB
0000320D
0000B4E2
000015A5
00009CB4
00002746
000020AC
0000721C
000023AA
000088B0
000066C0
00006EDA
00001947
000042C2
000056AC
00006D00
000148B0
00003A40
00003800
0000C7C8
00004DAE
00004BE9
00002FE1
00006B46
000035F3
0000AE08
000097B6
000038F4
00002EA5
000060FE
000056CB
00002924
000027D2
00002A79
00006D90
00006115
00006D12
0000292B
0000B122
00004720
00004813
00008D60
00008F9E
00007F80
000082E8
00003585
0000C218
00005912
00004D4C
000035EE
00004D1A
00005A9E
00004E75
00006022
00003D4D
00006428
00007ED7
0000E32E
00005FCE
00005C30
000039FE
00004995
00008B64
0000B346
00005C88
00009A5C
0000EAFA
00004CA0
0000B97E
00003A02
00001C94
00003387
00005216
000045D6
00000D4C
00002265
00005337
0000B05A
0000BE0A
00005158
00008998
0000661D
00004F09
0000341E
00002DBE
000055F0
00002244
000032E4
0000ED8C
000039BF
00005AF7
0000464C
00001A7B
00001886
00006C62
0000AE54
0000437D
0000ACAA
0000386A
0000E010
00003BBC
0000A5B6
00004A35
00004139
0000ACAC
00009F08
0000743E
00005B74
00003A17
00007ADA
000037EE
00007AFA
00008776
000071C0
000095D6
00002CC6
000076BC
000055D9
00003D6D
00009A00
00009862
0000754C
00001D28
0000CA8C
00004378
000041E9
0000BCCC
00003E4A
00009546
0000D140
0000FB7A
00005033
000075CA
00004400
0000A242
000067FB
00006E2F
00002060
00003FE5
00005A8B
00007A50
