00120137
00142A1D
00150D43
001000EF
00154117
00151077
0016510F
00174387
00174E9D
0017543D
00172CA3
00174561
00163673
00175AA1
001652CD
0016310D
00161D1F
001741CB
0016285B
00163AF7
0011019F
00150DDF
00166A59
00162AEB
00152383
0012035D
00150B17
00151ACF
00162EF7
001731D7
00174D2D
00175735
001632BD
00165429
000D0013
001732E9
0017340F
001622D7
001415A9
00175459
001776E9
00164057
00163091
00177B17
00130899
001307D9
001629E7
00131CBF
0016492D
00150D4D
001761E5
001732E9
00175BD5
00151013
00162DB3
001723D1
00140EDB
0017366F
001639CD
00177F61
00175C07
00153221
00176B4D
00130307
001752E5
001514FB
00120173
001518D3
001643A3
00174057
00175569
0016328D
001303E7
001308C5
001749E7
00171CF5
00120427
00174945
00156F13
001758CF
00141073
00152705
00174137
0017526F
00177F45
00164923
00163517
00173827
00163B2D
001728C3
00162BC3
00140C9B
00164399
0016436B
001726D5
00164793
00175851
00161D1B
00164843
001410E1
001645BD
0016274D
00154849
001415BD
00142B0B
00176273
0017407F
00140989
00177045
00163AD1
001742DD
001521D7
0015188D
00151A61
001640BF
00140D53
00174699
0017657B
00161F4B
0014137D
00150F93
0017651F
001411FD
00177267
00175CC9
00166FCB
00130427
00141201
001614B7
00162351
00150E5B
00150729
00173613
001632BD
00164131
0014121D
00162ABF
00177C9B
001530A9
00174401
00174361
00175343
001640B1
00163A03
00160E01
001750B9
00174C8B
00150D4D
00171CC1
00164905
00162715
0016105B
001203F9
001415E5
00174097
00163287
00177407
00151291
001639B5
00161443
00175FD7
00140CC7
00130945
00165265
00172D99
00151749
001645CD
001760E1
0016470B
00110253
00164F2D
0016393D
001311CD
001514A3
00163D21
00161DFB
001634AF
001632F5
001506D3
001746E7
00140D9D
00165C5D
001779BD
00152143
00172D07
00175473
001517E7
001511C9
001774D1
0015290D
00174467
00165361
0017565B
001001AB
0017220B
0016222B
001548C7
00151D9B
00167023
00175471
001754B5
00130A5B
001620BD
00175A81
00141981
00161CB7
0017419F
00141187
00152C59
00172F0D
00175279
00162B05
000E0045
0014160D
00164193
00120431
00176589
001644A3
0016135F
0016406B
00140C95
0014070B
0017640F
001752BF
00164073
00130427
001779B9
00141233
00164A99
0015144B
00171323
00172FDF
00166AAB
00164CBF
001417DF
00163C95
00176E89
001415A1
00174E9F
00161691
00140C4F
001746B9
0017599F
00130511
001624BB
001731D9
00174CAF
001723BD
001753ED
00164CFF
00173DD3
00152AE3
0017504D
001001F5
00130613
001637AF
00176C71
001000A1
00141C0D
001742A1
00175B7D
0017571B
00175DF5
00151CDD
001629B3
00171DE3
00174AF7
00177DE5
00161C93
0016696F
00152649
00152005
001410F1
00164DB7
00162A15
00162CB5
0017401B
00163F23
00175AAD
00173E3D
00151DFB
001746D9
0016440F
001622E7
00172DA1
001306D1
001519D1
00177601
00177ECD
00141985
00161B95
00151C37
00140EF5
001729A1
00176DA1
0015252D
00140325
00175147
00120223
0017188F
00164FBF
00141B31
00152513
0013076D
001645ED
00150F3F
00174D6D
0015108B
0016423B
0017585D
001313D3
000E001B
0017775F
00164417
001728C9
00162D05
001101A9
00176977
0015134F
0015109D
00174F2D
0016476F
00141347
00152BAB
00130CE5
00175BD1
00140461
00161B9D
00000001
001645B1
00165987
001753D5
00175FC9
001512B3
001739A5
0017547B
001628B9
00161125
0015152F
001666EB
00174CCF
001101C5
001514E5
00173265
0017242B
001652B9
00161ED3
00162DF9
00140A31
00151A63
001642AB
000F0221
00140FF5
00161425
00130A0B
00140829
00172F8F
00165239
001404DF
00153FFB
001521D7
001637A9
001523C1
00175DDB
001733AD
0014099B
001426C9
001735C9
001726BD
001527CB
00161561
001522E7
00171073
0017413D
00150401
00130469
00151337
00162FB9
001627F5
00140839
00177451
00166B75
00172A4F
001776B3
