// [DW-CONSTSHIFT] node_conv_824_scale.mem -- CONSTANT-SHIFT format.
// slot[30:0] = mult' = mult << (23 - shift)   (was {shift[21:16], mult[15:0]})
// consumed by node_conv_824.v: v = (biased * mult' + 2^22) >>> 23
// regen: scripts/build_spatial_scale_mems.py (auto-detects the [DW-CONSTSHIFT] RTL marker)
000029E1
00005C80
00003768
00003837
0000AFB4
00003C20
00001A47
00001B94
0000470F
0000328B
00006280
0000182C
00006A73
000012EA
000038E1
0000A06E
00001B7B
0000241E
00007409
00002095
000020A6
000055D3
000088AE
00002614
0000136F
00003603
0000204B
0000227E
0000B0E0
00001FCA
00002E7E
00001F40
00003C9B
00005788
00003383
000042C7
000034E4
000031CE
00001C77
00003326
000016A4
000097A6
00001F13
00001E9B
000022DB
00001AE7
00003B0C
00003848
00002F6D
00001B80
000026E2
0000330C
000063D5
00003F75
00003FD0
00001E91
0000367E
00002FBD
00002E87
00004C73
00003D6A
000041BC
000055B5
0000318B
00004B12
00002A39
00003778
00003677
000061F7
00004733
00001CCF
000023BB
0000302F
000029F6
00001F88
00005559
00002799
000053DB
00003C57
00010A08
00003D6F
00004B82
00800000
0000583B
00003C20
00000DEE
0000517B
00003E3B
00004C0D
0000191E
00005396
00001542
0000246B
000030FA
000015F6
00009224
00003C99
00001632
00002B0D
0000356B
000038F9
00009F64
0000286A
0000519D
0000307F
00002D63
0000D616
000037C0
0000554E
00002139
00001E5E
00001CFE
00002A6E
000033FD
000042E8
000025FD
00004436
00001B9C
0000269E
0000169E
00002712
00003B57
000049A0
000022A5
000019E2
000053E0
00005F6C
0000147D
00001891
000032D7
00003D09
00001C8A
00000A93
0000373E
00008E0E
0000F53E
0000275C
00002FB4
00002B5E
00002193
00002265
00002B4F
000041A9
000023A3
