// [DW-CONSTSHIFT] node_conv_848_scale.mem -- CONSTANT-SHIFT format.
// slot[30:0] = mult' = mult << (23 - shift)   (was {shift[21:16], mult[15:0]})
// consumed by node_conv_848.v: v = (biased * mult' + 2^22) >>> 23
// regen: scripts/build_spatial_scale_mems.py (auto-detects the [DW-CONSTSHIFT] RTL marker)
000021A9
0000619C
000022EE
00002DDC
0000201E
00001E90
000020B6
00003B68
0000636A
00001D36
000018C7
000024D8
00001EE3
000045A6
00005227
000039AE
00001F9C
00002F64
00002E05
000027E4
0000178B
00003DA8
00002444
000059BA
0000193F
000016E6
00001A21
00003B16
000018A4
000021A7
00003438
00001FD7
0000292E
000036F7
00001C10
00006A8C
00001ACD
00003715
00002D26
0000404F
00003165
00001C17
00003D1E
00001849
00003280
00004843
0000254C
00005132
0000339A
000047E8
00002DA9
0000510F
00002950
0000300E
00002E10
000033D5
00003CEE
0000294E
00002646
000030C1
0000236A
00002307
000032B3
00002981
0000268B
00002674
0000316B
0000586A
00001C55
00003701
00003521
00002E2B
000039CC
00002CD2
00002D85
00002AB3
00002650
00002A90
00001B66
00001E60
00002C1B
0000328C
0000358D
00003178
000016A0
0000303F
0000281F
00004355
00003129
00001BA2
000029ED
0000382C
00003823
0000240F
000018C3
00006F4C
000015C9
00003348
00001EA2
000038CA
000012C5
00002FF8
00002D94
00002B49
00002860
00002D17
000043F8
00001BD1
000022FF
000027E5
00003C2F
00002D01
00002E8A
0000233B
00002A0D
00004050
000034B8
000025FC
00002C9E
000047A2
00005B28
000094BA
00003E2D
00004AE4
00002A9F
00003DA3
0000310C
00003D5A
00002E17
00002F6C
000029D0
00001A25
0000351F
000032D2
00006007
00003046
0000315D
00001FBF
00002D83
00003486
00002BF1
000029A1
000030BE
00003369
000022F1
0000223A
00001F5A
0000370E
00003084
00002750
00001A55
00002CDA
00001EC2
0000313C
00002A04
0000354E
00003E4B
00002C08
00002AA7
000044B7
00003971
00003E0E
00002F59
0000554F
00002D49
00001A39
00002E4E
000026AA
00002222
0000172B
00006EB0
00002072
00002546
00002728
00002BBC
0000186F
000025A3
000013D4
00005EBA
00002E1F
0000261A
00002599
000046CB
00002857
000042D4
0000378B
00002A99
00002E33
000036CC
000027A0
000030CD
0000389C
