// [DW-CONSTSHIFT] node_conv_818_scale.mem -- CONSTANT-SHIFT format.
// slot[30:0] = mult' = mult << (23 - shift)   (was {shift[21:16], mult[15:0]})
// consumed by node_conv_818.v: v = (biased * mult' + 2^22) >>> 23
// regen: scripts/build_spatial_scale_mems.py (auto-detects the [DW-CONSTSHIFT] RTL marker)
00002115
000005AD
0000835E
00004C2F
00000B99
00000ABD
000006EC
00001A96
000034A4
00002496
00002B7C
000019B9
00000FF8
00001EDF
000024E1
00004D9A
00001FB5
00005A82
000013A3
00001114
00005FE6
00002079
00000E89
00002148
00001E4B
00002287
000032FB
00001DEA
00003295
00002018
00001EA9
00000BC7
0000218E
00001322
00002E53
00002D12
00003A5F
00001070
00001709
00000BED
00006EF0
00002A5D
00002F46
00007E75
00000AC3
00006CB4
00005103
000014B0
00006F35
00003144
00001543
00001122
00002FF7
00001710
00000AA9
00002D84
00006B91
00002BD0
00002C9A
0000114F
00001CB2
00002F43
00000DA9
000018F2
00000E08
0000123C
00003466
00002324
00001EBA
00001440
00001FCF
00001D35
00001F8D
00004891
000009EE
000009BC
000012D1
0000292C
00000F06
00001906
000020A2
00000706
000018B0
00001C46
00000C4C
000039F9
00001AB7
00001C5C
00000EEB
000020FB
0000241B
00001BF7
000053C1
000006ED
000015F0
00000646
