// [DW-CONSTSHIFT] node_conv_872_scale.mem -- CONSTANT-SHIFT format.
// slot[30:0] = mult' = mult << (23 - shift)   (was {shift[21:16], mult[15:0]})
// consumed by node_conv_872.v: v = (biased * mult' + 2^22) >>> 23
// regen: scripts/build_spatial_scale_mems.py (auto-detects the [DW-CONSTSHIFT] RTL marker)
00005057
00007231
0000ED06
0000D64E
0000DF68
0000DD2C
0000A974
00006A5A
0000CBF2
0000560B
0000E24C
00004D66
000045A4
00014044
0000E984
00009952
00003977
0000C6A8
000117B8
0003E828
0000AFCC
00011B10
00006079
0000CA72
0000E076
0000D332
0000284E
0000D314
0001120C
0000C318
0000F50C
00015CE8
0000A974
00008678
00005656
00009B06
0000E4BC
00002FF9
0001116C
00011684
00017364
000097DA
0000C510
0000E1AC
00009FBC
00002883
0000DAEA
0000D5FC
0000378F
00004DD6
00003325
0000B0C4
0000630D
00010EAC
0000D734
0000DAFE
0000AEAA
0000B594
0000E012
0000C9E8
000071D5
0000C83E
000045F4
00004501
000155F0
0000E192
00004932
0000B4F6
0000FE08
00007864
00008EE2
0000D872
0000502B
0000D900
0000F6A6
000089DE
00003ECD
0000C970
0000AEF6
0000CC0C
0000D87E
000038F3
0000B234
000110BC
0000F232
000082AA
0000B34C
0000BF7C
0000ADB4
00013CDC
0000F37A
0000D0B6
0000D4AC
00006A99
00009E20
00004E65
00005F46
0000DF2A
0000CFE8
0000A5EE
0000C2CA
00011248
0001069C
0000BAC4
000103EC
0000678F
00006B63
00009D38
0000C59C
00009DD8
0000DE8A
0000F55C
0000AEF6
0000C3A0
000080F8
0000C874
00009E12
00004EEA
0000A88E
0000A6EC
0000345C
0000D8BA
00008174
00008632
00018F04
00003875
00006234
0000E6FE
000185C0
0000D0E2
0000D1E0
00012590
0000F686
00005FE2
0000E472
0000684B
0000CE56
000053AD
0000CB8E
0000D48A
0000D9CE
0000CD6E
000048A3
0000EA92
0000D372
0001161C
0000A1F2
000084F2
0000FF7A
00008A60
00004B07
0000B01E
00009A44
0000D5E2
00005C43
0000C494
0000BED0
00005AC6
0000CD2E
00003810
0000D0D8
00008876
0000B4FC
0000EE82
00006BC0
00009B78
000081CC
0000C91A
00006C3D
0000B1B4
0000F976
0000B5DA
00003810
0000E510
0000CF48
00007EB6
0000D52E
00006EDE
0001B2EC
00007DAC
00003FB1
0000A3D4
000107D4
0000921C
0000CAE0
000031A0
0000EBBE
0000FDDA
000050A9
00012B20
000051F8
000083C6
000051F9
0000BDF2
00003964
0000AB46
00008AD6
0000EBEE
0000FB18
0000FE4A
0000C178
00007FD9
000058D6
0000C07E
00006509
00008B50
000082EC
0000AAB4
0000B3EA
0000D432
00006781
0000F87E
00005EF5
0000A380
0000B97C
0000EC14
0000525C
00003A21
0000B794
0000C362
0000BBE8
00008830
0000741E
0000AE6A
0000B846
000071E7
0001046C
0000B908
0000B956
0000A0DC
00008A34
00011C18
0000C5D6
0000E998
0000D196
0000A4A0
0000E466
0000D15E
00008184
00004ACB
00005A2A
0000C5A0
0000FF2A
0000B0A8
0000CF54
0000CF9A
0000301F
00010934
0000C354
000091CE
0000B51A
0000A932
0001ADFC
0000BDA4
0000CEA2
0000D524
000107C8
00006B94
0000F9F2
0000AFCE
0000E63E
00012484
0000FA1C
00004189
00006295
0000974A
00004839
00007E19
0000B6E6
0000FB4A
0000D6F2
000156A8
000099FA
0000BA78
00012EEC
000033CB
0000C92E
0000ECEC
000096C0
0000E662
00021D28
00003780
00012E30
0000DA2E
0000673A
0000FB1E
0000EF2A
00003FAB
000089DE
00029BE8
000046CA
00008BC2
0000CF30
0000869A
0000A1D8
0000922E
0000671F
00006AA0
00006BFB
0000EE82
0000EAA2
0000872E
00004166
00006BE8
0000CE90
00009E26
0000C25A
0000C3A8
0000D54C
000116F4
0000C2CC
0000A272
00004F50
00002314
00011220
0000C608
0000F63C
00009B76
0000876A
0000B2B2
0000A74A
000124D4
0000D818
0000F016
0000D164
0000F916
0000B19A
000092E6
0000A932
00007257
0000B156
0000DD88
0000731A
0000C200
00006281
0000BEFA
0000D60C
0000B314
000102E0
00007566
0000EF7E
0000BD5A
00009074
0000A8E6
000094D6
0000D1AC
00002F38
0000BCD4
0000D10A
0000CE16
000045F3
0000527F
00015AB0
00003C94
0000A8B0
00056020
0000D7AC
0000DDCE
0000CC8A
0000F6F0
00014CE0
0000F042
0000E15A
0000D240
00010E54
00005DE3
000090C4
00009684
00014B88
0000E092
00011128
0000F6EE
0000B58E
000040D5
0000A862
00018124
0000FDDC
0000EDF4
0000D03E
0000CF20
000054FF
000062A1
0001065C
0001E418
