// [DW-CONSTSHIFT] node_conv_884_scale.mem -- CONSTANT-SHIFT format.
// slot[30:0] = mult' = mult << (23 - shift)   (was {shift[21:16], mult[15:0]})
// consumed by node_conv_884.v: v = (biased * mult' + 2^22) >>> 23
// regen: scripts/build_spatial_scale_mems.py (auto-detects the [DW-CONSTSHIFT] RTL marker)
0000615F
000050B3
0000541A
000033D0
00004311
00003EC0
000041FB
0000636A
0000595D
00005DF8
00003A46
00005438
000022B2
00004199
00005632
000033F9
000024C2
00002135
000029FD
00004A36
000029EB
00004E43
00004AB5
00004AAA
000078C4
00002740
00005012
00002492
000028A1
00005676
000047FF
00005D40
00006A5F
0000335B
000045EF
00004043
0000315C
000037D2
000037F4
00004A9D
00006A74
0000A9E6
00003804
0000555C
00012610
00006610
0000483D
0000497F
000061A9
00003CEC
000056EF
00001564
00005ACD
00002B86
0000B558
00004874
00005D18
00001F99
00004466
000059C5
00005949
00002B32
00006359
0000412D
0000500D
000040FD
000020D4
00002378
00004351
0000710B
0000331D
00004925
000088A2
00007A31
00006394
00006591
00006C13
00007926
00002C7F
000052A0
000041D8
00005859
000080B8
00003A4F
00002B01
0000533F
00006B9A
00004EFC
0000391B
000025B1
0000C0AE
00001671
00004921
0000498B
000029D7
00001BAF
000047F7
00005794
000054DA
00002E4F
0000668B
00003851
000073A5
00005F97
00004F07
00006DA8
00008B9A
00002CD0
00008008
0000408F
00002E12
0000242A
000064E6
00008006
000077E0
000064BC
0000587B
00004185
00003007
000044CD
00005AB9
0000410C
000079AB
00002754
000059BE
0000CC5E
00007FF5
00001D65
00002A5B
00004CB3
000027EB
00003E24
00005537
0000222D
00003179
00001A8F
00005B4F
000051D7
00005CBD
000055F6
00026638
00006AD1
0000326C
0000A1CE
00001971
00005DD9
0000280D
00004D08
00006248
0000490B
00002DF6
00008A8A
00002139
0000340B
0000699C
00004685
000028A1
00002AA8
00007D49
000019DD
00007427
0000258E
00001BC2
00005327
00004DDE
00003483
00007186
00007354
000026C6
00001FD8
00004955
0000159D
00003B82
00006BF6
00004002
000017E3
0000594B
000022B2
00004878
00004BEF
00002E58
00003DFC
00004347
00005F87
000011D3
0000508D
00004FC8
00005FE3
000056D1
00003F6A
0000496E
000029A8
0000254B
00004A65
0000214C
00003DA4
00002F11
00005A95
00005990
00006FA9
00003401
00001356
000018F9
00002CF1
00005BCA
000023B2
00001752
00006477
000042D0
000065CE
00003ED4
00006DAF
0000805E
00004D78
00005F5E
0000675F
0000240B
00002A67
00005850
00007521
00004674
00003758
00006BAE
00003169
000057AA
00007379
0000594A
00003D0D
000020D6
00003A7E
000078F1
000033A7
0000538A
00002ACA
00005F41
00003D1A
00004041
0000963A
00005166
0000256F
00004152
00006197
00004F8D
00009F88
0000541F
00006E32
00005168
00004257
00007DD8
0000742D
0000469E
000058BF
00002570
0000656D
00004C47
000024A0
0000266C
0000334A
00002296
00006823
0000704B
00004DB5
00004F96
0000ACFC
00003B03
000046E7
00008946
00007463
00009E30
00002799
000053E7
000048B7
0000735D
00002DDE
0000BBEE
0000465F
000077D2
00008476
00006334
00006307
000022E6
0000689A
00004749
00001127
00007F56
0000BA2A
000050D9
00003F8C
000049B9
000053E2
00003195
00003E27
00004C4C
0000ED3E
00002844
000010CB
00005995
000072DA
00006670
00007F06
00005F7D
000062C1
000075C7
00003FCC
000030A8
00007686
000056F5
00006FD7
00006FF2
00008274
00004E67
000014FE
00004BDF
00005478
00006494
000077B4
00004E0C
00002ED6
0000531E
00006C9D
000045E6
000064E6
0000B034
0000541C
00008DCE
000095D4
00005C81
000054D9
000048C3
000055E3
00004A8B
0000560F
00003372
00006C06
00009236
0000263B
00003161
000021A7
000082D2
000028E3
00007172
000052CF
00009130
00002D35
00006BF5
00005DE3
00007658
00004B43
000014F3
00005994
00003DCB
00003C91
00002EA5
0000B2DA
00006C71
0000204B
00001984
00003385
000055EC
00006577
00004769
00005D00
0000D25A
00001243
00003092
00006F58
00004ED3
0000692E
0000428D
0000215E
00001F4E
00004A8B
00002C9E
00006471
00002749
00003A63
00004C72
00003F50
000057FF
000105C4
00006761
00006FCD
00005EB4
00004C24
00008D20
000071FD
00002BC4
0000285A
00001A46
00004C4C
00003469
00003A60
000060ED
000087D6
00800000
00002439
00003A1E
00007047
00005AD2
0000377B
0000636E
00005BEE
000023FD
000068C6
0000203F
00002FA7
000084CA
00003800
00007778
00003F86
00006004
00006DBA
00004013
0000456F
00005007
0000894E
0000646C
0000449F
000021FA
00004134
00003767
00006AEC
00006D70
00004BD9
000034B5
000019F4
00004911
00001F7B
0000449F
0000111C
000033DA
00002462
000041E4
0000201E
000048B4
0000513D
00005F9C
000044F1
000018A6
00004C68
0000382E
00002BDE
00004C4C
000050CC
00003066
00003723
00001988
00001812
0000122A
000036D1
000042E4
0000824C
0000572D
000047FC
0000757D
000023E6
0000262D
0000509C
00005546
00007CDD
00004878
00008F7C
00001DC0
0000561A
00008602
0000B5EC
000041FD
000068F3
0000478D
000046F9
00003BCF
000062A5
000036CF
0000736A
00007694
00004F4C
00004EBF
000076DD
0000CA70
00004342
00008B3A
00002920
00002790
00001F50
00002C26
00008994
00005795
000043AC
00005CE3
000072D1
00002D4F
0000295F
00004282
00008DE8
0000227C
00002D2D
00005BB2
00006C39
000057C0
000066DE
000054F9
00005CC8
000065CA
00006518
0001002C
00006451
00007765
00001AC2
00001ECA
000051C4
000070F1
0000498F
00003E74
00004DBE
00005D04
00011878
00006131
00007FD4
00003B9C
0000897A
0000483A
000044A5
00005655
00002C3A
000079FA
00002698
0000720F
00000F46
00001547
00004217
0000663D
00002B8D
000054C8
000046A8
00006219
00003EAE
00002B20
00001DA9
0000699D
00007C51
00007145
00001A19
000016E1
00004B9C
000060B2
0000244D
00006DD0
000081B6
00003FDC
00008008
0000459F
000055D8
00007A45
00006718
00004CDC
00003574
00003C45
00001043
00004990
000039AD
00002D2C
000073D0
00003F55
000059E4
00003B91
00003AF0
00005CE5
00001AF9
000056FF
0000508A
00004A18
000023E1
00005E1C
0000299E
00002D76
00004AF9
