// [DW-CONSTSHIFT] node_conv_836_scale.mem -- CONSTANT-SHIFT format.
// slot[30:0] = mult' = mult << (23 - shift)   (was {shift[21:16], mult[15:0]})
// consumed by node_conv_836.v: v = (biased * mult' + 2^22) >>> 23
// regen: scripts/build_spatial_scale_mems.py (auto-detects the [DW-CONSTSHIFT] RTL marker)
0000D2E4
00004657
00004341
00003599
0000A460
00004C8C
0000C966
0000318C
00006265
00005F36
00007B3F
00005671
00003B30
00005169
0000C2DE
00054980
0000561D
0000BD8E
0000366F
00003DA2
00004EA9
00004213
0000A9A6
00005A95
00003368
0000BAD0
0000DC88
00009212
000058A2
000039FC
00004935
00002CD6
00006B17
00004121
00003AC3
000056D8
000046F0
00004CEF
00013BC0
00005615
000072A4
000050E8
00007F6A
00004506
00004833
000067D0
00004116
00009344
0000BF2A
000074E0
00004D4B
0000E028
000048A1
00003F82
00003C7E
0000365F
00001E7D
00009134
0000B962
00007BE6
0000369F
00003D4C
0000DD18
00003E22
00007C99
00003A63
00004DE2
00004D82
000057A9
00007187
00005257
00003573
000041D8
00007636
0000C5E0
0000406F
00006DF9
00012504
0000FB4E
00003839
00005312
000054A1
0000772D
00006A94
00007306
00007FDC
00002F43
0001C560
00003227
0000C424
0000B5BE
00008B7C
00003D2C
0000177E
00003D2D
0000786F
00009D1A
00007A78
00011F4C
00001BC6
0000B09A
00004B5A
000082C8
000047BC
00006F5D
0000DA92
00007681
0000B4CC
0000D884
00004990
00008006
00003AA7
00001B9A
00002E7F
00006812
00000F78
0000D630
0000458A
00004867
0000C738
00006838
00006255
000040DB
0000778D
00003AEF
000043B1
00006B9E
00008A18
0000CE3C
0000DCAA
00003BA7
00005801
0000491A
0000ACB8
00016F14
00001D42
000048A4
000029EF
00005542
0000AA7A
000076D7
0000A842
00009092
00015360
0000709B
0000506F
00002906
00002F7C
0000B8CC
0000AD90
00004945
0000A0C4
00007400
00006E2E
0000577A
00003956
0000BBDA
0000311B
0000EE0C
00004BC9
0000A6A8
00002916
0000215B
000098B8
0000467B
00005C65
0002BD38
00009242
00009F52
00004BFA
000037DE
0000112E
00003C75
00002F46
000039CF
000028A6
00003792
00005FEF
00006936
000048A6
00004690
00004255
0000DD70
0000F5FC
0000D3AE
0000D096
000051DC
00004ABF
00004613
0000481D
00004067
00002779
