001721A9
00151867
00161177
00150B77
0016100F
001301E9
0016105B
0014076D
001631B5
00160E9B
001718C7
0014049B
00171EE3
001622D3
00175227
00161CD7
001507E7
00150BD9
00172E05
001509F9
0017178B
001407B5
00150911
00162CDD
0017193F
00160B73
00171A21
00161D8B
00150629
001721A7
00140687
00171FD7
00161497
001736F7
001301C1
00151AA3
00171ACD
00173715
00161693
0017404F
00173165
00171C17
00161E8F
00171849
00100065
00174843
00150953
00162899
001619CD
001408FD
00172DA9
0017510F
00130295
00161807
001302E1
001733D5
00161E77
001614A7
00161323
001730C1
001611B5
00172307
001732B3
00172981
0017268B
0015099D
0017316B
00162C35
00171C55
00173701
00173521
00172E2B
00150E73
00161669
00172D85
00172AB3
00130265
001302A9
00160DB3
001200F3
00172C1B
00150CA3
0017358D
0014062F
001200B5
0017303F
0017281F
00174355
00173129
00160DD1
001729ED
00150E0B
00173823
0017240F
001718C3
00151BD3
001715C9
00140669
00160F51
00161C65
001712C5
001405FF
00150B65
00172B49
00120143
00172D17
0014087F
00171BD1
001722FF
001727E5
00173C2F
00172D01
00161745
0017233B
00172A0D
00130405
00140697
0015097F
0016164F
001623D1
00140B65
00164A5D
00173E2D
001512B9
00172A9F
00173DA3
00150C43
00161EAD
00172E17
00150BDB
0013029D
00171A25
0017351F
00161969
00176007
00161823
0017315D
00171FBF
00172D83
00161A43
00172BF1
001729A1
0016185F
00173369
001722F1
0016111D
00160FAD
00161B87
00150C21
00130275
00171A55
0016166D
00160F61
00150C4F
00150A81
00161AA7
00173E4B
00140581
00172AA7
001744B7
00173971
00161F07
00172F59
0017554F
00172D49
00171A39
00161727
00161355
00161111
0017172B
001306EB
00161039
001612A3
001404E5
00150AEF
0017186F
001725A3
001504F5
00162F5D
00172E1F
0016130D
00172599
001746CB
00172857
001510B5
0017378B
00172A99
00172E33
00150DB3
0012013D
001730CD
00150E27
