0017718B
001777FD
0014071F
0016411B
001518D1
00172477
00165DC3
00174B25
00150DA9
00151475
00162A2D
00174D67
001641A1
00174A2F
001615A1
00152943
00162F77
00141431
00175069
00164945
00173163
001722AF
00152E95
00152897
001504CB
00164DE1
00154103
0016524D
0016240F
0017294F
00176A01
00164789
001202CF
001302F9
001621CD
001529AF
00151FFB
00162725
00164271
00160585
001510C7
00175EE7
00171F1F
0016465F
001304D3
00151301
00172DC1
001405C3
00175B21
0015056D
00140565
0017776D
0012019D
00171E55
00152075
00174BB9
00161643
0016255B
00173E35
001764A7
00151BDB
00172107
00163561
00164A5B
00161B29
001633E3
00172375
00174A1B
00172A21
001624BF
00150E67
00152177
001774A1
00162063
00171F15
0017163F
00175AB7
001611A3
00140751
001737EB
0017680F
0016111F
00161A9F
00150DF7
00175DA7
001743D9
001415F5
001752C1
00177885
001760CB
00152753
00173D2F
00176AFB
0014082D
00175159
00164C29
00173C19
00161DE3
00162EDF
001722FF
00164DBD
00174695
00152CDD
00177B79
00152517
00175B6D
001623F5
00176C89
00172521
00163717
00130539
001619BD
00151BB1
00152A4B
00177899
00173883
00140947
00160E85
001414CD
001751C9
00150EFD
00150FEF
00174525
00174C61
00174013
0016217F
001101C9
001510C1
001714AF
00144B2F
001529C3
001753B7
00174F55
00120347
00151F27
00162927
00176D9F
00150AF9
00140A71
00175B6F
00167CC1
00161391
00175BC5
0014165F
00140761
0017250D
00172E4B
001309DB
00151693
001526FB
0017411F
001411A7
001621FB
00161BDD
0014138F
00160E5D
001406DD
001641F7
00161279
00174DC5
0016232B
00164ECB
00141489
00160C3D
00162381
00140201
0016590B
00141053
00140AA9
00176039
0015168D
001723F1
0015476F
0013036D
001508FF
00174CD1
00176F21
0015295B
00174B29
001510B9
001617A3
001516FF
00141363
00174BE3
001779CF
00173AEF
00120195
00175E95
00176B91
001204D3
00160D7B
00171F2D
00161B15
00172A1B
00174397
00164AD7
001639F3
001712C5
0017399D
001625AD
00162369
00174B41
001404F3
00163CFB
001316E5
00161A01
00172125
0012019B
001646B1
0016413B
0017301D
00173EF1
001727BD
00163D13
00172FA7
001526A5
0014099D
00176769
00176637
00110109
001417BF
001518D7
00175F4F
00150BF7
00160FB9
00161CF3
00152F0D
00140301
001733C1
0016228F
00176E29
0016457D
0017472D
00174017
00150E99
0015530B
00164F43
00164BDD
00176DD3
00140BC7
001738C5
00167393
00164365
00140391
00164447
001612E7
00130599
00163117
00162D59
00172A39
00161D99
00161D07
00140C81
001528A9
00160EC7
0017309D
00151135
0013060F
001745DD
00176939
001618A3
00164875
00175829
00163299
0014159D
001754B7
00161A43
00140A2B
00155EF3
00151909
00153445
001411F1
00171207
0014029F
001712ED
0016355B
000F0049
00154205
00173009
00152E73
001537FB
00170ADB
00176F4B
00152CC1
00171DE9
00151837
00150AFB
0016528F
00130315
00171C5F
001779C3
00174F7F
00166265
0017392D
00174F5B
00140D4F
00163AEF
00150311
00176FF5
00140B83
001522B9
001715B5
001201C7
00177481
00164F45
00175FE7
00173A83
00151079
001771EF
001523CF
00120515
001403F3
00140403
00166AD3
00164F8F
001635A9
00171E6F
0014204B
001417AF
00175C15
00141057
001622D1
00172C89
0017391F
001718E5
0016481F
00174C99
00173533
00141B6D
00130A29
00165F11
00162035
001628CD
00170FDB
001740A9
00177AC3
00150DCB
001411FB
00150F0B
001646EB
0015154D
00175F75
00151B91
00172537
001745EF
00160EEF
00162467
001725D5
00151661
00175F31
00175F1B
00171C2D
001631D1
00151AEF
0017363F
0014123F
00130719
00130C55
00175557
00177C43
001754AF
00171BB9
0016281D
00151ACF
00163C21
00161E71
00174E0F
00173997
0017411B
001758F1
00174305
0014118F
0016313F
001644C3
00173829
001300E3
00171C3F
00110357
00142F79
001749C5
001650C7
00177CA9
00164F87
00151279
0015172B
00160CB1
00172B99
00166A65
00152127
001731F1
0013063B
00160ADB
0017234B
00176F57
00162003
00161185
0016470F
001743F3
00150383
00150651
001519C5
00175219
00175B47
001411D5
001611B9
00172215
00173F8B
00150F51
00164B47
001633A3
00150B91
00172C2B
00160847
00150E4F
00172477
00176187
001664C3
00164685
001729C9
00130A71
001618BB
0016199B
001410B7
00151C39
00164671
00160A55
00177A9D
00162ACF
00141509
00175759
00151873
00151129
001408E3
001536A3
00141C6D
00160711
001732E3
0017651B
00175E9D
00140D4F
00177041
00154613
001608AD
00160F95
00173E37
00164355
001741C9
001635A3
00164299
001628AB
00152799
00177077
00164EBB
0014053B
00141469
001627DF
00172B1D
00173DC3
0016321B
00161D83
00151C31
00174981
00176C51
00140A63
00170CC7
00131291
00177CED
00171A33
00152BF9
00150BFF
0014081D
00176E61
00150FC3
00174987
0014087B
001775DF
00176A4D
001309AF
001618C1
00175F09
001652C3
0016542F
001771EF
00130469
00141F81
00163CB1
00172543
00172D2D
001516E5
0017289F
00172CB7
001626D1
00161579
00173B69
001723D7
000F0093
0016321D
00172CC3
00172CB1
0016082B
00172E81
001726D3
001657C7
001731D1
00151881
00150D1B
001406B1
00175E55
00130419
00175B27
001537D7
00172851
00162B77
00163BB9
00177D6B
00141A65
00162EB7
001305B9
00174399
000F0095
00173F6B
0017183D
00176F39
00171DF3
0014109B
00140257
00141E87
00161D1D
00151883
00172457
0016407F
001769ED
00175E03
00173DE7
001714EF
00161A15
00174B91
00164AB3
00177FA5
001620C5
00174275
00173A43
00164733
0015089D
00177F21
00150B5B
00150C37
00172B61
00161A3D
00120341
0016518D
00151D47
00177343
00151257
00175483
00174CE5
00173EDB
001518E1
00161A71
001637F9
0015199D
001505F5
00162CA9
00150861
0016269F
00161467
00161FBB
001777D1
00174375
00130313
001728DB
00165059
0014091B
00161EB1
0016413B
001773E3
001203A3
00174905
0016366B
00161D35
001765B5
001100B5
00140DE9
00176FF1
0013050B
00164331
00152687
00161D59
00160ECD
00174E2D
0017530D
00160FE7
001635D3
001755D7
00150DC7
0016221D
0017765B
0012087D
00164699
00177BC9
00152757
00172EFB
00150FD5
00164DB9
00166F49
00173CF3
00160BF9
0014019F
00177DA3
001775EF
0017299B
00171195
00150F7B
0011024F
001725F5
001609CD
00151F65
0017673D
00172AF1
001406D1
00176B81
00140813
001625E5
00175C03
00174E83
0016339F
00174F5B
00164327
00170E73
00170C59
00172901
00173CF9
001737AB
00175107
0017704B
0015255F
0015208B
00172363
00151AF7
001725BB
001647BD
001750DB
00140933
0017410D
00174CE1
00141061
001772BB
00176621
00171583
00163533
001650D3
00140769
0017762D
00173E0D
00160B1F
00177693
00163A07
0017668B
00173F0D
0013425B
00166E05
001750DF
00171FBF
00173E59
00151D29
00172283
001303B5
00177BF3
00150A19
0017787F
00160ABD
001518BB
00130975
0016313F
00162BDD
0016145F
00150807
00152513
0010008B
0017574B
00175AC5
00172D6D
001518EF
0017471F
0017670F
001742E7
00160D41
001406B5
00176A37
001739FF
00172E27
001711D5
00173775
00174481
00174187
00150EFD
00151275
00163C7D
00177A67
001730AF
00175CBB
001710BF
00130481
00150D75
00164191
001726B7
001727B5
00163D23
0015238F
0017493B
001606D9
00140C2F
001765D7
001757A9
00177AF7
0014074D
001778E1
00171CB5
0017569B
00176E69
00130B9F
0016523D
000C000D
0016103B
00173A63
001306D5
00163F79
0017331F
00167F0F
0015079D
001406BF
00176F09
00140C05
00151CD3
00151EDB
001635A1
001522B7
0017454D
001509C7
00162F91
0014137F
00161F39
001738E1
0016174D
00174749
00141149
00173B0B
00153D3D
00162F1B
00153C0D
001626FB
00152849
0016064F
001734EF
001750DD
00176D11
00165F7B
001306ED
00161101
00161439
001757C7
00161451
00165683
00172C07
0015306D
0014132B
001507E1
001710AB
0017451D
00176DF9
001728FB
00141059
001619BB
0017621B
00174223
00173135
001742FF
001629F3
00175221
00176E55
001643DD
0016338D
001621C3
00163221
00150DBF
00161845
001525B7
00100115
00130553
0011004D
00174823
00165851
00167B3F
00160BA7
0014094D
0017595D
00173A89
001643E5
00173AE9
00173209
00150C91
00173495
001661E5
00156FA1
00163CD9
001523D9
00164173
00173AC5
0017080B
001742F3
00164055
00162647
00160ED9
00151491
00164FCB
001777F9
00174FFD
00174D79
00151C81
00172309
00150CDD
00171943
00151553
0015195F
00174C6D
00175D3F
00174151
00140C37
001609E5
001627E9
00176651
0014128F
00176309
00163B7F
001302F3
00152299
00175407
00172227
00174BB3
00173CE3
00177BBD
001510DF
000F0049
00177309
00173701
00176DE3
00161DF3
00176477
00160B0D
0015108F
0016205F
001522A5
00161E63
001618E9
001746D5
00163FF9
00162EED
0017544F
00141219
001637F5
00150809
001527F5
00164553
00140403
0015180D
0017250B
00152AFF
00173627
00160D25
00120419
001624A5
00121283
0016221D
00161C07
00150811
0016368B
001634C5
00161C4F
00153787
0017536D
001619B3
00151D73
001636CD
00164369
00175A8B
00173949
0017664D
00164BB3
00150EE1
00150685
00172B97
00165821
00161BA1
00164531
001509FD
00164BA3
00174625
00140503
00161213
00164131
0017477D
00176F89
00163315
00162D7F
001614D3
0016541D
0017372F
00140DEF
00172815
00174705
00173D8D
00152159
0016191F
001100C5
00170F07
00162B91
00170C71
00164C81
0016417B
001762DF
001611CF
001519A3
001779EB
0017706D
00171CAD
0017713B
00171C33
0017264B
0017139F
00176FE9
001749DD
001730E3
00151F0F
001752FF
0014044F
00150A67
0012033D
00172CB3
00152BB5
001754AD
00171D9D
00164F13
00162BE9
001750A1
00177C93
00162C15
001724D9
0017464F
00177FCB
00175829
00151C1F
00161D55
001511C5
00171CDB
001714B9
00120405
00173291
001738ED
00172103
00165521
