008000000080000000800000008000000080000000800000008000000080000000800000008000000080000000800000008000000080000000800000008000000080000000800000008000000080000000800000008000000080000000800000008000000080000000800000008000000080000000800000008000000080000000800000008000000080000000800000008000000080000000800000008000000080000000800000008000000080000000800000008000000080000000800000008000000080000000800000008000000080000000800000008000000080000000800000008000000080000000800000008000000080000000800000008000000080000000800000008000000080000000800000008000000080000000800000008000000080000000800000008000000080000000800000008000000080000000800000008000000080000000800000008000000080000000800000008000000080000000800000008000000080000000800000008000000080000000800000008000000080000000800000008000000080000000800000008000000080000000800000008000000080000000800000008000000080000000800000008000000080000000800000008000000080000000800000008000000080000000800000008000000080000000800000008000000080000000800000008000000080000000800000008000000080000000800000008000000080000000800000008000000080000000800000008000000080000000800000008000000080000000800000008000000080000000800000008000000080000000800000008000000080000000800000008000000080000000800000008000000080000000800000008000000080000000800000008000000080000000800000008000000080000000800000008000000080000000800000008000000080000000800000008000000080000000800000008000000080000000800000008000000080000000800000008000000080000000800000008000000080000000800000008000000080000000800000008000000080000000800000008000000080000000800000008000000080000000800000008000000080000000800000008000000080000000800000008000000080000000800000008000000080000000800000008000000080000000800000008000000080000000800000008000000080000000800000008000000080000000800000008000000080000000800000008000000080000000800000008000000080000000800000008000000080000000800000008000000080000000800000000079e4000079e4000079e4000079e4000079e4000079e4000079e4000079e4000079e4000079e4000079e4000079e4000079e4000079e4000079e4000079e4
0080000000800000008000000080000000800000008000000080000000800000008000000080000000800000008000000080000000800000008000000080000000800000008000000080000000800000008000000080000000800000008000000080000000800000008000000080000000800000008000000080000000800000008000000080000000800000008000000080000000800000008000000080000000800000008000000080000000800000008000000080000000800000008000000080000000800000008000000080000000800000008000000080000000800000008000000080000000800000008000000080000000800000008000000080000000800000008000000080000000800000008000000080000000800000008000000080000000800000008000000080000000800000008000000080000000800000008000000080000000800000008000000080000000800000008000000080000000800000008000000080000000800000008000000080000000800000008000000080000000800000008000000080000000800000008000000080000000800000008000000080000000800000008000000080000000800000008000000080000000800000008000000080000000800000008000000080000000800000008000000080000000800000008000000080000000800000008000000080000000800000008000000080000000800000008000000080000000800000008000000080000000800000008000000080000000800000008000000080000000800000008000000080000000800000008000000080000000800000008000000080000000800000008000000080000000800000008000000080000000800000008000000080000000030fc000030fc000030fc000030fc000030fc000030fc000030fc000030fc000030fc000030fc000030fc000030fc000030fc000030fc000030fc000030fc000030fc000030fc000030fc000030fc000030fc000030fc000030fc000030fc000030fc000030fc000030fc000030fc000030fc000030fc000030fc000030fc000030fc000030fc000030fc000030fc000030fc000030fc000030fc000030fc000030fc000030fc000030fc000030fc000030fc000030fc000030fc000030fc000030fc000030fc000030fc000030fc000030fc000030fc000030fc000030fc000030fc000030fc000030fc000030fc000030fc000030fc000030fc000030fc000030fc000030fc000030fc000030fc000030fc000030fc000030fc000030fc000030fc000030fc000030fc000030fc000030fc000030fc000030fc000030fc000030fc000030fc000030fc000030fc000030fc000030fc000030fc000030fc000030fc000030fc000030fc000030fc000030fc000030fc000030fc000030fc0
00800000008000000080000000800000008000000080000000800000008000000080000000800000008000000080000000800000008000000080000000800000008000000080000000800000008000000080000000800000008000000080000000800000008000000080000000800000008000000080000000800000008000000080000000800000008000000080000000800000008000000080000000800000008000000080000000800000008000000080000000800000008000000080000000800000008000000080000000800000008000000080000000800000008000000080000000800000008000000080000000800000008000000080000000800000008000000080000000800000008000000080000000800000008000000080000000800000008000000080000000800000008000000080000000800000008000000080000000800000008000000080000000800000008000000080000000800000008000000080000000800000008000000080000000800000008000000080000000800000008000000080000000800000008000000080000000800000008000000080000000800000008000000080000000800000008000000080000000800000008000000080000000800000008000000080000000800000008000000080000000800000008000000080000000800000008000000080000000800000008000000080000000800000008000000080000000800000008000000080000000800000008000000080000000800000008000000080000000800000008000000080000000800000008000000080000000800000008000000080000000800000008000000080000000800000008000000080000000800000008000000080000000800000008000000080000000800000008000000080000000800000008000000080000000800000008000000080000000800000008000000080000000800000008000000080000000800000008000000080000000800000008000000080000000800000008000000080000000800000008000000080000000800000008000000080000000800000008000000080000000800000008000000080000000800000008000000080000000800000008000000080000000800000008000000080000000800000008000000080000000800000008000000080000000800000008000000080000000800000008000000080000000800000008000000080000000800000008000000080000000800000008000000080000000800000008000000080000000800000000062d4000062d4000062d4000062d4000062d4000062d4000062d4000062d4000062d4000062d4000062d4000062d4000062d4000062d4000062d4000062d4000062d4000062d4000062d4000062d4000062d4000062d4000062d4000062d4
00800000008000000080000000800000008000000080000000800000008000000080000000800000008000000080000000800000008000000080000000800000008000000080000000800000008000000080000000800000008000000080000000800000008000000080000000800000008000000080000000800000008000000080000000800000008000000080000000800000008000000080000000800000008000000080000000800000008000000080000000800000008000000080000000800000008000000080000000800000008000000080000000800000008000000080000000800000008000000080000000800000008000000080000000800000008000000080000000800000008000000080000000800000008000000080000000800000008000000080000000800000008000000080000000800000008000000080000000800000008000000080000000800000008000000080000000800000008000000080000000800000008000000080000000800000008000000080000000800000008000000080000000800000008000000080000000800000008000000080000000800000008000000080000000800000008000000080000000800000000111ac000111ac000111ac000111ac000111ac000111ac000111ac000111ac000111ac000111ac000111ac000111ac000111ac000111ac000111ac000111ac000111ac000111ac000111ac000111ac000111ac000111ac000111ac000111ac000111ac000111ac000111ac000111ac000111ac000111ac000111ac000111ac000111ac000111ac000111ac000111ac000111ac000111ac000111ac000111ac000111ac000111ac000111ac000111ac000111ac000111ac000111ac000111ac000111ac000111ac000111ac000111ac000111ac000111ac000111ac000111ac000111ac000111ac000111ac000111ac000111ac000111ac000111ac000111ac000111ac000111ac000111ac000111ac000111ac000111ac000111ac000111ac000111ac000111ac000111ac000111ac000111ac000111ac000111ac000111ac000111ac000111ac000111ac000111ac000111ac000111ac000111ac000111ac000111ac000111ac000111ac000111ac000111ac000111ac000111ac000111ac000111ac000111ac000111ac000111ac000111ac000111ac000111ac000111ac000111ac000111ac000111ac000111ac000111ac000111ac000111ac000111ac000111ac000111ac000111ac000111ac000111ac000111ac000111ac000111ac000111ac000111ac000111ac000111ac000111ac000111ac000111ac000111ac000111ac000111ac000111ac000111ac000111ac000111ac000111ac000111ac000111ac000111ac000111ac000111ac000111ac000111ac000111ac000111ac
0080000000800000008000000080000000800000008000000080000000800000008000000080000000800000008000000080000000800000008000000080000000800000008000000080000000800000008000000080000000800000008000000080000000800000008000000080000000800000008000000080000000800000008000000080000000800000008000000080000000800000008000000080000000800000008000000080000000800000008000000080000000800000008000000080000000800000008000000080000000800000008000000080000000800000008000000080000000800000008000000080000000800000008000000080000000800000008000000080000000800000008000000080000000800000008000000080000000800000008000000080000000800000008000000080000000800000008000000080000000800000008000000080000000800000008000000080000000800000008000000080000000800000008000000080000000800000008000000080000000800000008000000080000000800000008000000080000000800000008000000080000000800000008000000080000000800000008000000080000000800000008000000080000000800000008000000080000000800000008000000080000000800000008000000080000000800000008000000080000000800000008000000080000000800000008000000080000000800000008000000080000000800000008000000080000000800000008000000080000000800000008000000080000000800000008000000080000000800000008000000080000000800000008000000080000000800000008000000080000000800000008000000080000000800000008000000080000000800000008000000080000000800000008000000080000000800000008000000080000000800000008000000080000000800000008000000080000000800000008000000080000000800000008000000080000000800000008000000080000000800000008000000080000000800000008000000080000000800000008000000080000000800000008000000080000000800000008000000080000000800000008000000080000000800000008000000080000000800000008000000080000000800000008000000080000000800000008000000080000000800000008000000080000000800000008000000080000000800000008000000080000000800000008000000080000000800000008000000080000000007c7500007c7500007c7500007c7500007c7500007c7500007c7500007c7500007c7500007c7500007c7500007c7500007c7500007c7500007c7500007c7500007c7500007c7500007c7500007c7500007c7500007c7500007c7500007c75
008000000080000000800000008000000080000000800000008000000080000000800000008000000080000000800000008000000080000000800000008000000080000000800000008000000080000000800000008000000080000000800000008000000080000000800000008000000080000000800000008000000080000000800000008000000080000000800000008000000080000000800000008000000080000000800000008000000080000000800000008000000080000000800000008000000080000000800000008000000080000000800000008000000080000000800000008000000080000000800000008000000080000000800000008000000080000000800000008000000080000000800000008000000080000000800000008000000080000000800000008000000080000000800000008000000080000000800000008000000080000000800000008000000080000000800000008000000080000000800000008000000080000000800000008000000080000000800000008000000080000000800000008000000080000000800000008000000080000000800000008000000080000000800000008000000080000000800000008000000000be9e0000be9e0000be9e0000be9e0000be9e0000be9e0000be9e0000be9e0000be9e0000be9e0000be9e0000be9e0000be9e0000be9e0000be9e0000be9e0000be9e0000be9e0000be9e0000be9e0000be9e0000be9e0000be9e0000be9e0000be9e0000be9e0000be9e0000be9e0000be9e0000be9e0000be9e0000be9e0000be9e0000be9e0000be9e0000be9e0000be9e0000be9e0000be9e0000be9e0000be9e0000be9e0000be9e0000be9e0000be9e0000be9e0000be9e0000be9e0000be9e0000be9e0000be9e0000be9e0000be9e0000be9e0000be9e0000be9e0000be9e0000be9e0000be9e0000be9e0000be9e0000be9e0000be9e0000be9e0000be9e0000be9e0000be9e0000be9e0000be9e0000be9e0000be9e0000be9e0000be9e0000be9e0000be9e0000be9e0000be9e0000be9e0000be9e0000be9e0000be9e0000be9e0000be9e0000be9e0000be9e0000be9e0000be9e0000be9e0000be9e0000be9e0000be9e0000be9e0000be9e0000be9e0000be9e0000be9e0000be9e0000be9e0000be9e0000be9e0000be9e0000be9e0000be9e0000be9e0000be9e0000be9e0000be9e0000be9e0000be9e0000be9e0000be9e0000be9e0000be9e0000be9e0000be9e0000be9e0000be9e0000be9e0000be9e0000be9e0000be9e0000be9e0000be9e0000be9e0000be9e0000be9e0000be9e0000be9e0000be9e0000be9e0000be9e0000be9e0000be9e0000be9e0000be9e0000be9e0000be9e0000be9e0000be9e0000be9e0000be9e0000be9e0000be9e0000be9e
008000000080000000800000008000000080000000800000008000000080000000800000008000000080000000800000008000000080000000800000008000000080000000800000008000000080000000800000008000000080000000800000008000000080000000800000008000000080000000800000008000000080000000800000008000000080000000800000008000000080000000800000008000000080000000800000008000000080000000800000008000000080000000800000008000000080000000800000008000000080000000800000008000000080000000800000008000000080000000800000008000000080000000800000008000000080000000800000008000000080000000800000008000000080000000800000008000000080000000800000008000000080000000800000008000000080000000800000008000000080000000800000008000000080000000800000008000000080000000800000008000000080000000800000008000000080000000800000008000000080000000800000008000000080000000800000008000000080000000800000008000000080000000800000008000000080000000800000008000000080000000800000008000000080000000800000008000000080000000800000008000000080000000800000008000000080000000800000008000000080000000800000008000000080000000800000008000000080000000800000008000000080000000800000008000000080000000800000008000000080000000800000008000000080000000800000008000000080000000800000008000000080000000800000008000000080000000800000008000000080000000800000008000000080000000800000008000000080000000800000008000000080000000800000008000000080000000800000008000000080000000800000008000000080000000800000008000000080000000800000008000000080000000800000008000000080000000800000008000000080000000800000008000000080000000800000008000000080000000800000008000000080000000800000008000000080000000800000008000000080000000800000008000000080000000800000008000000080000000800000008000000080000000800000008000000080000000800000008000000080000000800000008000000080000000800000008000000080000000007b7500007b7500007b7500007b7500007b7500007b7500007b7500007b7500007b7500007b7500007b7500007b7500007b7500007b7500007b7500007b7500007b7500007b7500007b7500007b7500007b7500007b7500007b7500007b7500007b7500007b7500007b7500007b7500007b7500007b7500007b7500007b75
008000000080000000800000008000000080000000800000008000000080000000800000008000000080000000800000008000000080000000800000008000000080000000800000008000000080000000800000008000000080000000800000008000000080000000800000008000000080000000800000008000000080000000800000008000000080000000800000008000000080000000800000008000000080000000800000008000000080000000800000008000000080000000800000008000000080000000800000008000000080000000800000008000000080000000800000008000000080000000800000008000000080000000800000008000000000dc6c0000dc6c0000dc6c0000dc6c0000dc6c0000dc6c0000dc6c0000dc6c0000dc6c0000dc6c0000dc6c0000dc6c0000dc6c0000dc6c0000dc6c0000dc6c0000dc6c0000dc6c0000dc6c0000dc6c0000dc6c0000dc6c0000dc6c0000dc6c0000dc6c0000dc6c0000dc6c0000dc6c0000dc6c0000dc6c0000dc6c0000dc6c0000dc6c0000dc6c0000dc6c0000dc6c0000dc6c0000dc6c0000dc6c0000dc6c0000dc6c0000dc6c0000dc6c0000dc6c0000dc6c0000dc6c0000dc6c0000dc6c0000dc6c0000dc6c0000dc6c0000dc6c0000dc6c0000dc6c0000dc6c0000dc6c0000dc6c0000dc6c0000dc6c0000dc6c0000dc6c0000dc6c0000dc6c0000dc6c0000dc6c0000dc6c0000dc6c0000dc6c0000dc6c0000dc6c0000dc6c0000dc6c0000dc6c0000dc6c0000dc6c0000dc6c0000dc6c0000dc6c0000dc6c0000dc6c0000dc6c0000dc6c0000dc6c0000dc6c0000dc6c0000dc6c0000dc6c0000dc6c0000dc6c0000dc6c0000dc6c0000dc6c0000dc6c0000dc6c0000dc6c0000dc6c0000dc6c0000dc6c0000dc6c0000dc6c0000dc6c0000dc6c0000dc6c0000dc6c0000dc6c0000dc6c0000dc6c0000dc6c0000dc6c0000dc6c0000dc6c0000dc6c0000dc6c0000dc6c0000dc6c0000dc6c0000dc6c0000dc6c0000dc6c0000dc6c0000dc6c0000dc6c0000dc6c0000dc6c0000dc6c0000dc6c0000dc6c0000dc6c0000dc6c0000dc6c0000dc6c0000dc6c0000dc6c0000dc6c0000dc6c0000dc6c0000dc6c0000dc6c0000dc6c0000dc6c0000dc6c0000dc6c0000dc6c0000dc6c0000dc6c0000dc6c0000dc6c0000dc6c0000dc6c0000dc6c0000dc6c0000dc6c0000dc6c0000dc6c0000dc6c0000dc6c0000dc6c0000dc6c0000dc6c0000dc6c0000dc6c0000dc6c0000dc6c0000dc6c0000dc6c0000dc6c0000dc6c0000dc6c0000dc6c0000dc6c0000dc6c0000dc6c0000dc6c0000dc6c0000dc6c0000dc6c0000dc6c0000dc6c0000dc6c0000dc6c0000dc6c0000dc6c0000dc6c0000dc6c0000dc6c0000dc6c0000dc6c0000dc6c0000dc6c0000dc6c0000dc6c0000dc6c
00800000008000000080000000800000008000000080000000800000008000000080000000800000008000000080000000800000008000000080000000800000008000000080000000800000008000000080000000800000008000000080000000800000008000000080000000800000008000000080000000800000008000000080000000800000008000000080000000800000008000000080000000800000008000000080000000800000008000000080000000800000008000000080000000800000008000000080000000800000008000000080000000800000008000000080000000800000008000000080000000800000008000000080000000800000008000000080000000800000008000000080000000800000008000000080000000800000008000000080000000800000008000000080000000800000008000000080000000800000008000000080000000800000008000000080000000800000008000000080000000800000008000000080000000800000008000000080000000800000008000000080000000800000008000000080000000800000008000000080000000800000008000000080000000800000008000000080000000800000008000000080000000800000008000000080000000800000008000000080000000800000008000000080000000800000008000000080000000800000008000000080000000800000008000000080000000800000008000000080000000800000008000000080000000800000008000000080000000800000008000000080000000800000008000000080000000800000008000000080000000800000008000000080000000800000008000000080000000800000008000000080000000800000008000000080000000800000008000000080000000800000008000000080000000800000008000000080000000800000008000000080000000800000008000000080000000800000008000000080000000800000008000000080000000800000008000000080000000800000008000000080000000800000008000000080000000800000008000000080000000800000008000000080000000800000008000000080000000800000008000000080000000800000008000000080000000800000008000000080000000800000008000000080000000800000008000000080000000800000008000000080000000800000008000000080000000800000008000000001394400013944000139440001394400013944000139440001394400013944000139440001394400013944000139440001394400013944000139440001394400013944000139440001394400013944000139440001394400013944000139440001394400013944000139440001394400013944000139440001394400013944
00800000008000000080000000800000008000000080000000800000008000000080000000800000008000000080000000800000008000000080000000800000008000000080000000800000008000000080000000800000008000000080000000800000008000000080000000800000008000000080000000800000008000000080000000800000008000000080000000800000008000000080000000800000008000000080000000800000008000000080000000800000008000000080000000800000008000000080000000800000008000000080000000800000008000000080000000800000008000000080000000800000008000000080000000800000000081420000814200008142000081420000814200008142000081420000814200008142000081420000814200008142000081420000814200008142000081420000814200008142000081420000814200008142000081420000814200008142000081420000814200008142000081420000814200008142000081420000814200008142000081420000814200008142000081420000814200008142000081420000814200008142000081420000814200008142000081420000814200008142000081420000814200008142000081420000814200008142000081420000814200008142000081420000814200008142000081420000814200008142000081420000814200008142000081420000814200008142000081420000814200008142000081420000814200008142000081420000814200008142000081420000814200008142000081420000814200008142000081420000814200008142000081420000814200008142000081420000814200008142000081420000814200008142000081420000814200008142000081420000814200008142000081420000814200008142000081420000814200008142000081420000814200008142000081420000814200008142000081420000814200008142000081420000814200008142000081420000814200008142000081420000814200008142000081420000814200008142000081420000814200008142000081420000814200008142000081420000814200008142000081420000814200008142000081420000814200008142000081420000814200008142000081420000814200008142000081420000814200008142000081420000814200008142000081420000814200008142000081420000814200008142000081420000814200008142000081420000814200008142000081420000814200008142000081420000814200008142000081420000814200008142000081420000814200008142000081420000814200008142000081420000814200008142000081420000814200008142000081420000814200008142
0080000000800000008000000080000000800000008000000080000000800000008000000080000000800000008000000080000000800000008000000080000000800000008000000080000000800000008000000080000000800000008000000080000000800000008000000080000000800000008000000080000000800000008000000080000000800000008000000080000000800000008000000080000000800000008000000080000000800000008000000080000000800000008000000080000000800000008000000080000000800000008000000080000000800000008000000080000000800000008000000080000000800000008000000080000000800000008000000080000000800000008000000080000000800000008000000080000000800000008000000080000000800000008000000080000000800000008000000080000000800000008000000080000000800000008000000080000000800000008000000080000000800000008000000080000000800000008000000080000000800000008000000080000000800000008000000080000000800000008000000080000000800000008000000080000000800000008000000080000000800000008000000080000000800000008000000080000000800000008000000080000000800000008000000080000000800000008000000080000000800000008000000080000000800000008000000080000000800000008000000080000000800000008000000080000000800000008000000080000000800000008000000080000000800000008000000080000000800000008000000080000000800000008000000080000000800000008000000080000000800000008000000080000000800000008000000080000000800000008000000080000000800000008000000080000000800000008000000080000000800000008000000080000000800000008000000080000000800000008000000080000000800000008000000080000000800000008000000080000000800000008000000080000000800000008000000080000000800000008000000080000000800000008000000080000000800000008000000080000000800000008000000080000000800000008000000080000000800000008000000080000000800000008000000080000000800000008000000080000000800000008000000080000000800000008000000080000000800000000092de000092de000092de000092de000092de000092de000092de000092de000092de000092de000092de000092de000092de000092de000092de000092de000092de000092de000092de000092de000092de000092de000092de000092de000092de000092de000092de000092de000092de000092de000092de000092de
00800000008000000080000000800000008000000080000000800000008000000080000000800000008000000080000000800000008000000080000000800000008000000080000000800000008000000080000000800000008000000080000000800000008000000080000000800000008000000080000000800000008000000080000000800000008000000080000000800000008000000080000000800000008000000080000000800000008000000080000000800000008000000080000000800000008000000080000000800000008000000080000000800000008000000080000000800000008000000080000000800000008000000080000000800000000143f4000143f4000143f4000143f4000143f4000143f4000143f4000143f4000143f4000143f4000143f4000143f4000143f4000143f4000143f4000143f4000143f4000143f4000143f4000143f4000143f4000143f4000143f4000143f4000143f4000143f4000143f4000143f4000143f4000143f4000143f4000143f4000143f4000143f4000143f4000143f4000143f4000143f4000143f4000143f4000143f4000143f4000143f4000143f4000143f4000143f4000143f4000143f4000143f4000143f4000143f4000143f4000143f4000143f4000143f4000143f4000143f4000143f4000143f4000143f4000143f4000143f4000143f4000143f4000143f4000143f4000143f4000143f4000143f4000143f4000143f4000143f4000143f4000143f4000143f4000143f4000143f4000143f4000143f4000143f4000143f4000143f4000143f4000143f4000143f4000143f4000143f4000143f4000143f4000143f4000143f4000143f4000143f4000143f4000143f4000143f4000143f4000143f4000143f4000143f4000143f4000143f4000143f4000143f4000143f4000143f4000143f4000143f4000143f4000143f4000143f4000143f4000143f4000143f4000143f4000143f4000143f4000143f4000143f4000143f4000143f4000143f4000143f4000143f4000143f4000143f4000143f4000143f4000143f4000143f4000143f4000143f4000143f4000143f4000143f4000143f4000143f4000143f4000143f4000143f4000143f4000143f4000143f4000143f4000143f4000143f4000143f4000143f4000143f4000143f4000143f4000143f4000143f4000143f4000143f4000143f4000143f4000143f4000143f4000143f4000143f4000143f4000143f4000143f4000143f4000143f4000143f4000143f4000143f4000143f4000143f4000143f4000143f4000143f4000143f4000143f4000143f4000143f4000143f4000143f4000143f4000143f4000143f4000143f4000143f4000143f4000143f4000143f4000143f4000143f4000143f4000143f4
0080000000800000008000000080000000800000008000000080000000800000008000000080000000800000008000000080000000800000008000000080000000800000008000000080000000800000008000000080000000800000008000000080000000800000008000000080000000800000008000000080000000800000008000000080000000800000008000000080000000800000008000000080000000800000008000000080000000800000008000000080000000800000008000000080000000800000008000000080000000800000008000000080000000800000008000000080000000800000008000000080000000800000008000000080000000800000008000000080000000800000008000000080000000800000008000000080000000800000008000000080000000800000008000000080000000800000008000000080000000800000008000000080000000800000008000000080000000800000008000000080000000800000008000000080000000800000008000000080000000800000008000000080000000800000008000000080000000800000008000000080000000800000008000000080000000800000008000000080000000800000008000000080000000800000008000000080000000800000008000000080000000800000008000000080000000800000008000000080000000800000008000000080000000800000008000000080000000800000008000000080000000800000008000000080000000800000008000000080000000800000008000000080000000800000008000000080000000800000008000000080000000800000008000000080000000800000008000000080000000800000008000000080000000800000008000000080000000800000008000000080000000800000008000000080000000800000008000000080000000800000008000000080000000800000008000000080000000800000008000000080000000800000008000000080000000800000008000000080000000800000008000000080000000800000008000000000a8880000a8880000a8880000a8880000a8880000a8880000a8880000a8880000a8880000a8880000a8880000a8880000a8880000a8880000a8880000a8880000a8880000a8880000a8880000a8880000a8880000a8880000a8880000a8880000a8880000a8880000a8880000a8880000a8880000a8880000a8880000a8880000a8880000a8880000a8880000a8880000a8880000a8880000a8880000a8880000a8880000a8880000a8880000a8880000a8880000a8880000a8880000a8880000a8880000a8880000a8880000a8880000a8880000a8880000a8880000a8880000a8880000a8880000a8880000a8880000a8880000a8880000a8880000a888
00007540000075400000754000007540000075400000754000007540000075400000754000007540000075400000754000007540000075400000754000007540000075400000754000007540000075400000754000007540000075400000754000007540000075400000754000007540000075400000754000007540000075400000754000007540000075400000754000007540000075400000754000007540000075400000754000007540000075400000754000007540000075400000754000007540000075400000754000007540000075400000754000007540000075400000754000007540000075400000754000007540000075400000754000007540000075400000754000007540000075400000754000007540000075400000754000007540000075400000754000007540000075400000754000007540000075400000754000007540000075400000754000007540000075400000754000007540000075400000754000007540000075400000754000007540000075400000754000007540000075400000754000007540000075400000754000007540000075400000754000007540000075400000754000007540000075400000754000007540000075400000754000007540000075400000754000007540000075400000754000007540000075400000754000007540000075400000754000007540000075400000754000007540000075400000754000007540000075400000754000007540000075400000754000007540000075400000754000007540000075400000754000007540000075400000754000007540000075400000754000007540000075400000754000007540000075400000754000007540000075400000754000007540000075400000754000007540000075400000754000007540000075400000754000007540000075400000754000007540000075400000754000007540000075400000754000007540000075400000754000007540000075400000754000007540000075400000754000007540000075400000754000007540000075400000754000007540000075400000754000007540000075400000754000007540000075400000754000007540000075400000754000007540000075400000754000007540000075400000754000007540000075400000754000007540000075400000754000007540000075400000754000007540000075400000754000007540000075400000754000007540000075400000754000007540000075400000754000007540000075400000754000007540000075400000754000007540000075400000754000007540000075400000754000007540000075400000754000007540000075400000754000007540000075400000754000007540000075400000754000007540
00800000008000000080000000800000008000000080000000800000008000000080000000800000008000000080000000800000008000000080000000800000008000000080000000800000008000000080000000800000008000000080000000800000008000000080000000800000008000000080000000800000008000000080000000800000008000000080000000800000008000000080000000800000008000000080000000800000008000000080000000800000008000000080000000800000008000000080000000800000008000000080000000800000008000000080000000800000008000000080000000800000008000000080000000800000008000000080000000800000008000000080000000800000008000000080000000800000008000000080000000800000008000000080000000800000008000000080000000800000008000000080000000800000008000000080000000800000008000000080000000800000008000000080000000800000008000000080000000800000008000000080000000800000008000000080000000800000008000000080000000800000008000000080000000800000008000000080000000800000008000000080000000800000008000000080000000800000008000000080000000800000008000000080000000800000008000000080000000800000008000000000754000007540000075400000754000007540000075400000754000007540000075400000754000007540000075400000754000007540000075400000754000007540000075400000754000007540000075400000754000007540000075400000754000007540000075400000754000007540000075400000754000007540000075400000754000007540000075400000754000007540000075400000754000007540000075400000754000007540000075400000754000007540000075400000754000007540000075400000754000007540000075400000754000007540000075400000754000007540000075400000754000007540000075400000754000007540000075400000754000007540000075400000754000007540000075400000754000007540000075400000754000007540000075400000754000007540000075400000754000007540000075400000754000007540000075400000754000007540000075400000754000007540000075400000754000007540000075400000754000007540000075400000754000007540000075400000754000007540000075400000754000007540000075400000754000007540000075400000754000007540000075400000754000007540000075400000754000007540000075400000754000007540000075400000754000007540000075400000754000007540
00800000008000000080000000800000008000000080000000800000008000000080000000800000008000000080000000800000008000000080000000800000008000000080000000800000008000000080000000800000008000000080000000800000008000000080000000800000008000000080000000800000008000000080000000800000008000000080000000800000008000000080000000800000008000000080000000800000008000000080000000800000008000000080000000800000008000000080000000800000008000000080000000800000008000000080000000800000008000000080000000800000008000000080000000800000008000000080000000800000008000000080000000800000008000000080000000800000008000000080000000800000008000000080000000800000008000000080000000800000008000000080000000800000008000000080000000800000008000000080000000800000008000000080000000800000008000000080000000800000008000000080000000800000008000000080000000800000008000000080000000800000008000000080000000800000008000000080000000800000008000000080000000800000008000000080000000800000008000000080000000800000008000000080000000800000008000000080000000800000008000000080000000800000008000000080000000800000008000000080000000800000008000000080000000800000008000000080000000800000008000000080000000800000008000000080000000800000008000000080000000800000008000000080000000800000008000000080000000800000008000000080000000800000008000000080000000800000008000000080000000800000008000000080000000800000008000000080000000800000008000000080000000800000008000000080000000800000008000000080000000800000008000000080000000800000008000000080000000800000008000000080000000800000008000000080000000015984000159840001598400015984000159840001598400015984000159840001598400015984000159840001598400015984000159840001598400015984000159840001598400015984000159840001598400015984000159840001598400015984000159840001598400015984000159840001598400015984000159840001598400015984000159840001598400015984000159840001598400015984000159840001598400015984000159840001598400015984000159840001598400015984000159840001598400015984000159840001598400015984000159840001598400015984000159840001598400015984000159840001598400015984
0000683a0000683a0000683a0000683a0000683a0000683a0000683a0000683a0000683a0000683a0000683a0000683a0000683a0000683a0000683a0000683a0000683a0000683a0000683a0000683a0000683a0000683a0000683a0000683a0000683a0000683a0000683a0000683a0000683a0000683a0000683a0000683a0000683a0000683a0000683a0000683a0000683a0000683a0000683a0000683a0000683a0000683a0000683a0000683a0000683a0000683a0000683a0000683a0000683a0000683a0000683a0000683a0000683a0000683a0000683a0000683a0000683a0000683a0000683a0000683a0000683a0000683a0000683a0000683a0000683a0000683a0000683a0000683a0000683a0000683a0000683a0000683a0000683a0000683a0000683a0000683a0000683a0000683a0000683a0000683a0000683a0000683a0000683a0000683a0000683a0000683a0000683a0000683a0000683a0000683a0000683a0000683a0000683a0000683a0000683a0000683a0000683a0000683a0000683a0000683a0000683a0000683a0000683a0000683a0000683a0000683a0000683a0000683a0000683a0000683a0000683a0000683a0000683a0000683a0000683a0000683a0000683a0000683a0000683a0000683a0000683a0000683a0000683a0000683a0000683a0000683a0000683a0000683a0000683a0000683a0000683a0000683a0000683a0000683a0000683a0000683a0000683a0000683a0000683a0000683a0000683a0000683a0000683a0000683a0000683a0000683a0000683a0000683a0000683a0000683a0000683a0000683a0000683a0000683a0000683a0000683a0000683a0000683a0000683a0000683a0000683a0000683a0000683a0000683a0000683a0000683a0000683a0000683a0000683a0000683a0000683a0000683a0000683a0000683a0000683a0000683a0000683a0000683a0000683a0000683a0000683a0000683a0000683a0000683a0000683a0000683a0000683a0000683a0000683a0000683a0000683a0000683a0000683a0000683a0000683a0000683a0000683a0000683a0000683a0000683a0000683a0000683a0000683a0000683a0000683a0000683a0000683a0000683a0000683a0000683a0000683a0000683a0000683a0000683a0000683a0000683a0000683a0000683a0000683a0000683a0000683a0000683a0000683a0000683a0000683a0000683a0000683a0000683a0000683a0000683a0000683a0000683a0000683a0000683a0000683a0000683a0000683a0000683a0000683a0000683a0000683a0000683a0000683a0000683a0000683a0000683a0000683a0000683a0000683a0000683a0000683a0000683a0000683a0000683a0000683a0000683a
00800000008000000080000000800000008000000080000000800000008000000080000000800000008000000080000000800000008000000080000000800000008000000080000000800000008000000080000000800000008000000080000000800000008000000080000000800000008000000080000000800000008000000080000000800000008000000080000000800000008000000080000000800000008000000080000000800000008000000080000000800000008000000080000000800000008000000080000000800000008000000080000000800000008000000080000000800000008000000080000000800000008000000080000000800000008000000080000000800000008000000080000000800000008000000080000000800000008000000080000000800000008000000080000000800000008000000080000000800000008000000080000000800000008000000080000000800000008000000080000000800000008000000080000000800000008000000080000000800000008000000080000000800000008000000080000000800000008000000080000000800000008000000080000000800000008000000080000000800000008000000080000000800000008000000080000000800000008000000080000000800000008000000080000000800000008000000080000000800000008000000000683a0000683a0000683a0000683a0000683a0000683a0000683a0000683a0000683a0000683a0000683a0000683a0000683a0000683a0000683a0000683a0000683a0000683a0000683a0000683a0000683a0000683a0000683a0000683a0000683a0000683a0000683a0000683a0000683a0000683a0000683a0000683a0000683a0000683a0000683a0000683a0000683a0000683a0000683a0000683a0000683a0000683a0000683a0000683a0000683a0000683a0000683a0000683a0000683a0000683a0000683a0000683a0000683a0000683a0000683a0000683a0000683a0000683a0000683a0000683a0000683a0000683a0000683a0000683a0000683a0000683a0000683a0000683a0000683a0000683a0000683a0000683a0000683a0000683a0000683a0000683a0000683a0000683a0000683a0000683a0000683a0000683a0000683a0000683a0000683a0000683a0000683a0000683a0000683a0000683a0000683a0000683a0000683a0000683a0000683a0000683a0000683a0000683a0000683a0000683a0000683a0000683a0000683a0000683a0000683a0000683a0000683a0000683a0000683a0000683a0000683a0000683a0000683a0000683a0000683a0000683a0000683a0000683a0000683a0000683a0000683a0000683a0000683a0000683a0000683a0000683a0000683a0000683a
008000000080000000800000008000000080000000800000008000000080000000800000008000000080000000800000008000000080000000800000008000000080000000800000008000000080000000800000008000000080000000800000008000000080000000800000008000000080000000800000008000000080000000800000008000000080000000800000008000000080000000800000008000000080000000800000008000000080000000800000008000000080000000800000008000000080000000800000008000000080000000800000008000000080000000800000008000000080000000800000008000000080000000800000008000000080000000800000008000000080000000800000008000000080000000800000008000000080000000800000008000000080000000800000008000000080000000800000008000000080000000800000008000000080000000800000008000000080000000800000008000000080000000800000008000000080000000800000008000000080000000800000008000000080000000800000008000000080000000800000008000000080000000800000008000000080000000800000008000000080000000800000008000000080000000800000008000000080000000800000008000000080000000800000008000000080000000800000008000000080000000800000008000000080000000800000008000000080000000800000008000000080000000800000008000000080000000800000008000000080000000800000008000000080000000800000008000000080000000800000008000000080000000800000008000000080000000800000008000000080000000800000008000000080000000800000008000000080000000800000008000000080000000800000008000000080000000800000008000000080000000800000008000000080000000800000008000000080000000800000008000000080000000800000008000000080000000800000008000000080000000800000008000000080000000800000000162d8000162d8000162d8000162d8000162d8000162d8000162d8000162d8000162d8000162d8000162d8000162d8000162d8000162d8000162d8000162d8000162d8000162d8000162d8000162d8000162d8000162d8000162d8000162d8000162d8000162d8000162d8000162d8000162d8000162d8000162d8000162d8000162d8000162d8000162d8000162d8000162d8000162d8000162d8000162d8000162d8000162d8000162d8000162d8000162d8000162d8000162d8000162d8000162d8000162d8000162d8000162d8000162d8000162d8000162d8000162d8000162d8000162d8000162d8000162d8000162d8000162d8000162d8000162d8
0000affe0000affe0000affe0000affe0000affe0000affe0000affe0000affe0000affe0000affe0000affe0000affe0000affe0000affe0000affe0000affe0000affe0000affe0000affe0000affe0000affe0000affe0000affe0000affe0000affe0000affe0000affe0000affe0000affe0000affe0000affe0000affe0000affe0000affe0000affe0000affe0000affe0000affe0000affe0000affe0000affe0000affe0000affe0000affe0000affe0000affe0000affe0000affe0000affe0000affe0000affe0000affe0000affe0000affe0000affe0000affe0000affe0000affe0000affe0000affe0000affe0000affe0000affe0000affe0000affe0000affe0000affe0000affe0000affe0000affe0000affe0000affe0000affe0000affe0000affe0000affe0000affe0000affe0000affe0000affe0000affe0000affe0000affe0000affe0000affe0000affe0000affe0000affe0000affe0000affe0000affe0000affe0000affe0000affe0000affe0000affe0000affe0000affe0000affe0000affe0000affe0000affe0000affe0000affe0000affe0000affe0000affe0000affe0000affe0000affe0000affe0000affe0000affe0000affe0000affe0000affe0000affe0000affe0000affe0000affe0000affe0000affe0000affe0000affe0000affe0000affe0000affe0000affe0000affe0000affe0000affe0000affe0000affe0000affe0000affe0000affe0000affe0000affe0000affe0000affe0000affe0000affe0000affe0000affe0000affe0000affe0000affe0000affe0000affe0000affe0000affe0000affe0000affe0000affe0000affe0000affe0000affe0000affe0000affe0000affe0000affe0000affe0000affe0000affe0000affe0000affe0000affe0000affe0000affe0000affe0000affe0000affe0000affe0000affe0000affe0000affe0000affe0000affe0000affe0000affe0000affe0000affe0000affe0000affe0000affe0000affe0000affe0000affe0000affe0000affe0000affe0000affe0000affe0000affe0000affe0000affe0000affe0000affe0000affe0000affe0000affe0000affe0000affe0000affe0000affe0000affe0000affe0000affe0000affe0000affe0000affe0000affe0000affe0000affe0000affe0000affe0000affe0000affe0000affe0000affe0000affe0000affe0000affe0000affe0000affe0000affe0000affe0000affe0000affe0000affe0000affe0000affe0000affe0000affe0000affe0000affe0000affe0000affe0000affe0000affe0000affe0000affe0000affe0000affe0000affe0000affe0000affe0000affe0000affe0000affe0000affe0000affe0000affe0000affe0000affe0000affe
00800000008000000080000000800000008000000080000000800000008000000080000000800000008000000080000000800000008000000080000000800000008000000080000000800000008000000080000000800000008000000080000000800000008000000080000000800000008000000080000000800000008000000080000000800000008000000080000000800000008000000080000000800000008000000080000000800000008000000080000000800000008000000080000000800000008000000080000000800000008000000080000000800000008000000080000000800000008000000080000000800000008000000080000000800000008000000080000000800000008000000080000000800000008000000080000000800000008000000080000000800000008000000080000000800000008000000080000000800000008000000080000000800000008000000080000000800000008000000080000000800000008000000080000000800000008000000080000000800000008000000080000000800000008000000080000000800000008000000080000000800000008000000080000000800000008000000080000000800000008000000080000000800000008000000080000000800000008000000080000000800000008000000080000000800000008000000080000000800000008000000000affe0000affe0000affe0000affe0000affe0000affe0000affe0000affe0000affe0000affe0000affe0000affe0000affe0000affe0000affe0000affe0000affe0000affe0000affe0000affe0000affe0000affe0000affe0000affe0000affe0000affe0000affe0000affe0000affe0000affe0000affe0000affe0000affe0000affe0000affe0000affe0000affe0000affe0000affe0000affe0000affe0000affe0000affe0000affe0000affe0000affe0000affe0000affe0000affe0000affe0000affe0000affe0000affe0000affe0000affe0000affe0000affe0000affe0000affe0000affe0000affe0000affe0000affe0000affe0000affe0000affe0000affe0000affe0000affe0000affe0000affe0000affe0000affe0000affe0000affe0000affe0000affe0000affe0000affe0000affe0000affe0000affe0000affe0000affe0000affe0000affe0000affe0000affe0000affe0000affe0000affe0000affe0000affe0000affe0000affe0000affe0000affe0000affe0000affe0000affe0000affe0000affe0000affe0000affe0000affe0000affe0000affe0000affe0000affe0000affe0000affe0000affe0000affe0000affe0000affe0000affe0000affe0000affe0000affe0000affe0000affe0000affe0000affe0000affe0000affe0000affe0000affe0000affe
00800000008000000080000000800000008000000080000000800000008000000080000000800000008000000080000000800000008000000080000000800000008000000080000000800000008000000080000000800000008000000080000000800000008000000080000000800000008000000080000000800000008000000080000000800000008000000080000000800000008000000080000000800000008000000080000000800000008000000080000000800000008000000080000000800000008000000080000000800000008000000080000000800000008000000080000000800000008000000080000000800000008000000080000000800000008000000080000000800000008000000080000000800000008000000080000000800000008000000080000000800000008000000080000000800000008000000080000000800000008000000080000000800000008000000080000000800000008000000080000000800000008000000080000000800000008000000080000000800000008000000080000000800000008000000080000000800000008000000080000000800000008000000080000000800000008000000080000000800000008000000080000000800000008000000080000000800000008000000080000000800000008000000080000000800000008000000080000000800000008000000080000000800000008000000080000000800000008000000080000000800000008000000080000000800000008000000080000000800000008000000080000000800000008000000080000000800000008000000080000000800000008000000080000000800000008000000080000000800000008000000080000000800000008000000080000000800000008000000080000000800000008000000080000000800000008000000080000000800000008000000080000000800000008000000080000000800000008000000080000000800000008000000080000000800000008000000080000000800000008000000080000000800000008000000080000000017628000176280001762800017628000176280001762800017628000176280001762800017628000176280001762800017628000176280001762800017628000176280001762800017628000176280001762800017628000176280001762800017628000176280001762800017628000176280001762800017628000176280001762800017628000176280001762800017628000176280001762800017628000176280001762800017628000176280001762800017628000176280001762800017628000176280001762800017628000176280001762800017628000176280001762800017628000176280001762800017628000176280001762800017628
0000abbe0000abbe0000abbe0000abbe0000abbe0000abbe0000abbe0000abbe0000abbe0000abbe0000abbe0000abbe0000abbe0000abbe0000abbe0000abbe0000abbe0000abbe0000abbe0000abbe0000abbe0000abbe0000abbe0000abbe0000abbe0000abbe0000abbe0000abbe0000abbe0000abbe0000abbe0000abbe0000abbe0000abbe0000abbe0000abbe0000abbe0000abbe0000abbe0000abbe0000abbe0000abbe0000abbe0000abbe0000abbe0000abbe0000abbe0000abbe0000abbe0000abbe0000abbe0000abbe0000abbe0000abbe0000abbe0000abbe0000abbe0000abbe0000abbe0000abbe0000abbe0000abbe0000abbe0000abbe0000abbe0000abbe0000abbe0000abbe0000abbe0000abbe0000abbe0000abbe0000abbe0000abbe0000abbe0000abbe0000abbe0000abbe0000abbe0000abbe0000abbe0000abbe0000abbe0000abbe0000abbe0000abbe0000abbe0000abbe0000abbe0000abbe0000abbe0000abbe0000abbe0000abbe0000abbe0000abbe0000abbe0000abbe0000abbe0000abbe0000abbe0000abbe0000abbe0000abbe0000abbe0000abbe0000abbe0000abbe0000abbe0000abbe0000abbe0000abbe0000abbe0000abbe0000abbe0000abbe0000abbe0000abbe0000abbe0000abbe0000abbe0000abbe0000abbe0000abbe0000abbe0000abbe0000abbe0000abbe0000abbe0000abbe0000abbe0000abbe0000abbe0000abbe0000abbe0000abbe0000abbe0000abbe0000abbe0000abbe0000abbe0000abbe0000abbe0000abbe0000abbe0000abbe0000abbe0000abbe0000abbe0000abbe0000abbe0000abbe0000abbe0000abbe0000abbe0000abbe0000abbe0000abbe0000abbe0000abbe0000abbe0000abbe0000abbe0000abbe0000abbe0000abbe0000abbe0000abbe0000abbe0000abbe0000abbe0000abbe0000abbe0000abbe0000abbe0000abbe0000abbe0000abbe0000abbe0000abbe0000abbe0000abbe0000abbe0000abbe0000abbe0000abbe0000abbe0000abbe0000abbe0000abbe0000abbe0000abbe0000abbe0000abbe0000abbe0000abbe0000abbe0000abbe0000abbe0000abbe0000abbe0000abbe0000abbe0000abbe0000abbe0000abbe0000abbe0000abbe0000abbe0000abbe0000abbe0000abbe0000abbe0000abbe0000abbe0000abbe0000abbe0000abbe0000abbe0000abbe0000abbe0000abbe0000abbe0000abbe0000abbe0000abbe0000abbe0000abbe0000abbe0000abbe0000abbe0000abbe0000abbe0000abbe0000abbe0000abbe0000abbe0000abbe0000abbe0000abbe0000abbe0000abbe0000abbe0000abbe0000abbe0000abbe0000abbe0000abbe0000abbe0000abbe0000abbe0000abbe0000abbe0000abbe0000abbe0000abbe
00800000008000000080000000800000008000000080000000800000008000000080000000800000008000000080000000800000008000000080000000800000008000000080000000800000008000000080000000800000008000000080000000800000008000000080000000800000008000000080000000800000008000000080000000800000008000000080000000800000008000000080000000800000008000000080000000800000008000000080000000800000008000000080000000800000008000000080000000800000008000000080000000800000008000000080000000800000008000000080000000800000008000000080000000800000008000000080000000800000008000000080000000800000008000000080000000800000008000000080000000800000008000000080000000800000008000000080000000800000008000000080000000800000008000000080000000800000008000000080000000800000008000000080000000800000008000000080000000800000008000000080000000800000008000000080000000800000008000000080000000800000008000000080000000800000008000000080000000800000008000000080000000800000008000000080000000800000008000000080000000800000008000000080000000800000008000000080000000800000008000000000abbe0000abbe0000abbe0000abbe0000abbe0000abbe0000abbe0000abbe0000abbe0000abbe0000abbe0000abbe0000abbe0000abbe0000abbe0000abbe0000abbe0000abbe0000abbe0000abbe0000abbe0000abbe0000abbe0000abbe0000abbe0000abbe0000abbe0000abbe0000abbe0000abbe0000abbe0000abbe0000abbe0000abbe0000abbe0000abbe0000abbe0000abbe0000abbe0000abbe0000abbe0000abbe0000abbe0000abbe0000abbe0000abbe0000abbe0000abbe0000abbe0000abbe0000abbe0000abbe0000abbe0000abbe0000abbe0000abbe0000abbe0000abbe0000abbe0000abbe0000abbe0000abbe0000abbe0000abbe0000abbe0000abbe0000abbe0000abbe0000abbe0000abbe0000abbe0000abbe0000abbe0000abbe0000abbe0000abbe0000abbe0000abbe0000abbe0000abbe0000abbe0000abbe0000abbe0000abbe0000abbe0000abbe0000abbe0000abbe0000abbe0000abbe0000abbe0000abbe0000abbe0000abbe0000abbe0000abbe0000abbe0000abbe0000abbe0000abbe0000abbe0000abbe0000abbe0000abbe0000abbe0000abbe0000abbe0000abbe0000abbe0000abbe0000abbe0000abbe0000abbe0000abbe0000abbe0000abbe0000abbe0000abbe0000abbe0000abbe0000abbe0000abbe0000abbe0000abbe0000abbe0000abbe0000abbe0000abbe
008000000080000000800000008000000080000000800000008000000080000000800000008000000080000000800000008000000080000000800000008000000080000000800000008000000080000000800000008000000080000000800000008000000080000000800000008000000080000000800000008000000080000000800000008000000080000000800000008000000080000000800000008000000080000000800000008000000080000000800000008000000080000000800000008000000080000000800000008000000080000000800000008000000080000000800000008000000080000000800000008000000080000000800000008000000080000000800000008000000080000000800000008000000080000000800000008000000080000000800000008000000080000000800000008000000080000000800000008000000080000000800000008000000080000000800000008000000080000000800000008000000080000000800000008000000080000000800000008000000080000000800000008000000080000000800000008000000080000000800000008000000080000000800000008000000080000000800000008000000080000000800000008000000080000000800000008000000080000000800000008000000080000000800000008000000080000000800000008000000080000000800000008000000080000000800000008000000080000000800000008000000080000000800000008000000080000000800000008000000080000000800000008000000080000000800000008000000080000000800000008000000080000000800000008000000080000000800000008000000080000000800000008000000000aace0000aace0000aace0000aace0000aace0000aace0000aace0000aace0000aace0000aace0000aace0000aace0000aace0000aace0000aace0000aace0000aace0000aace0000aace0000aace0000aace0000aace0000aace0000aace0000aace0000aace0000aace0000aace0000aace0000aace0000aace0000aace0000aace0000aace0000aace0000aace0000aace0000aace0000aace0000aace0000aace0000aace0000aace0000aace0000aace0000aace0000aace0000aace0000aace0000aace0000aace0000aace0000aace0000aace0000aace0000aace0000aace0000aace0000aace0000aace0000aace0000aace0000aace0000aace0000aace0000aace0000aace0000aace0000aace0000aace0000aace0000aace0000aace0000aace0000aace0000aace0000aace0000aace0000aace0000aace0000aace0000aace0000aace0000aace0000aace0000aace0000aace0000aace0000aace0000aace0000aace0000aace0000aace0000aace0000aace0000aace
0000819a0000819a0000819a0000819a0000819a0000819a0000819a0000819a0000819a0000819a0000819a0000819a0000819a0000819a0000819a0000819a0000819a0000819a0000819a0000819a0000819a0000819a0000819a0000819a0000819a0000819a0000819a0000819a0000819a0000819a0000819a0000819a0000819a0000819a0000819a0000819a0000819a0000819a0000819a0000819a0000819a0000819a0000819a0000819a0000819a0000819a0000819a0000819a0000819a0000819a0000819a0000819a0000819a0000819a0000819a0000819a0000819a0000819a0000819a0000819a0000819a0000819a0000819a0000819a0000819a0000819a0000819a0000819a0000819a0000819a0000819a0000819a0000819a0000819a0000819a0000819a0000819a0000819a0000819a0000819a0000819a0000819a0000819a0000819a0000819a0000819a0000819a0000819a0000819a0000819a0000819a0000819a0000819a0000819a0000819a0000819a0000819a0000819a0000819a0000819a0000819a0000819a0000819a0000819a0000819a0000819a0000819a0000819a0000819a0000819a0000819a0000819a0000819a0000819a0000819a0000819a0000819a0000819a0000819a0000819a0000819a0000819a0000819a0000819a0000819a0000819a0000819a0000819a0000819a0000819a0000819a0000819a0000819a0000819a0000819a0000819a0000819a0000819a0000819a0000819a0000819a0000819a0000819a0000819a0000819a0000819a0000819a0000819a0000819a0000819a0000819a0000819a0000819a0000819a0000819a0000819a0000819a0000819a0000819a0000819a0000819a0000819a0000819a0000819a0000819a0000819a0000819a0000819a0000819a0000819a0000819a0000819a0000819a0000819a0000819a0000819a0000819a0000819a0000819a0000819a0000819a0000819a0000819a0000819a0000819a0000819a0000819a0000819a0000819a0000819a0000819a0000819a0000819a0000819a0000819a0000819a0000819a0000819a0000819a0000819a0000819a0000819a0000819a0000819a0000819a0000819a0000819a0000819a0000819a0000819a0000819a0000819a0000819a0000819a0000819a0000819a0000819a0000819a0000819a0000819a0000819a0000819a0000819a0000819a0000819a0000819a0000819a0000819a0000819a0000819a0000819a0000819a0000819a0000819a0000819a0000819a0000819a0000819a0000819a0000819a0000819a0000819a0000819a0000819a0000819a0000819a0000819a0000819a0000819a0000819a0000819a0000819a0000819a0000819a0000819a0000819a
0000819a0000819a0000819a0000819a0000819a0000819a0000819a0000819a0000819a0000819a0000819a0000819a0000819a0000819a0000819a0000819a0000819a0000819a0000819a0000819a0000819a0000819a0000819a0000819a0000819a0000819a0000819a0000819a0000819a0000819a0000819a0000819a0000819a0000819a0000819a0000819a0000819a0000819a0000819a0000819a0000819a0000819a0000819a0000819a0000819a0000819a0000819a0000819a0000819a0000819a0000819a0000819a0000819a0000819a0000819a0000819a0000819a0000819a0000819a0000819a0000819a0000819a0000819a0000819a0000819a0000819a0000819a0000819a0000819a0000819a0000819a0000819a0000819a0000819a0000819a0000819a0000819a0000819a0000819a0000819a0000819a0000819a0000819a0000819a0000819a0000819a0000819a0000819a0000819a0000819a0000819a0000819a0000819a0000819a0000819a0000819a0000819a0000819a0000819a0000819a0000819a0000819a0000819a0000819a0000819a0000819a0000819a0000819a0000819a0000819a0000819a0000819a0000819a0000819a0000819a0000819a0000819a0000819a0000819a0000819a0000819a0000819a0000819a0000819a0000819a0000819a0000819a0000819a0000819a0000819a0000819a0000819a0000819a0000819a0000819a0000819a0000819a0000819a0000819a0000819a0000819a0000819a0000819a0000819a0000819a0000819a0000819a0000819a0000819a0000819a0000819a0000819a0000819a0000819a0000819a0000819a0000819a0000819a0000819a0000819a0000819a0000819a0000819a0000819a0000819a0000819a0000819a0000819a0000819a0000819a0000819a0000819a0000819a0000819a0000819a0000819a0000819a0000819a0000819a0000819a0000819a0000819a0000819a0000819a0000819a0000819a0000819a0000819a0000819a0000819a0000819a0000819a0000819a0000819a0000819a0000819a0000819a0000819a0000819a0000819a0000819a0000819a0000819a0000819a0000819a0000819a0000819a0000819a0000819a0000819a0000819a0000819a0000819a0000819a0000819a0000819a0000819a0000819a0000819a0000819a0000819a0000819a0000819a0000819a0000819a0000819a0000819a0000819a0000819a0000819a0000819a0000819a0000819a0000819a0000819a0000819a0000819a0000819a0000819a0000819a0000819a0000819a0000819a0000819a0000819a0000819a0000819a0000819a0000819a0000819a0000819a0000819a0000819a0000819a0000819a0000819a
0080000000800000008000000080000000800000008000000080000000800000008000000080000000800000008000000080000000800000008000000080000000800000008000000080000000800000008000000080000000800000008000000080000000800000008000000080000000800000008000000080000000800000008000000080000000800000008000000080000000800000008000000080000000800000008000000080000000800000008000000080000000800000008000000080000000800000008000000080000000800000008000000080000000800000008000000080000000800000008000000080000000800000008000000080000000800000008000000080000000800000008000000080000000800000008000000080000000800000008000000080000000800000008000000080000000800000008000000080000000800000008000000080000000800000008000000080000000800000008000000080000000800000008000000080000000800000008000000080000000800000008000000080000000800000008000000080000000800000008000000080000000800000008000000080000000800000008000000080000000800000008000000080000000800000008000000080000000800000008000000080000000800000008000000080000000800000008000000080000000800000008000000080000000800000008000000080000000800000008000000080000000800000008000000080000000800000008000000080000000800000008000000080000000800000008000000080000000800000008000000080000000800000008000000080000000800000008000000080000000800000008000000080000000800000008000000080000000800000008000000080000000800000008000000080000000800000008000000080000000800000008000000080000000800000008000000080000000800000008000000080000000800000008000000080000000800000008000000080000000800000008000000080000000800000008000000000819a0000819a0000819a0000819a0000819a0000819a0000819a0000819a0000819a0000819a0000819a0000819a0000819a0000819a0000819a0000819a0000819a0000819a0000819a0000819a0000819a0000819a0000819a0000819a0000819a0000819a0000819a0000819a0000819a0000819a0000819a0000819a0000819a0000819a0000819a0000819a0000819a0000819a0000819a0000819a0000819a0000819a0000819a0000819a0000819a0000819a0000819a0000819a0000819a0000819a0000819a0000819a0000819a0000819a0000819a0000819a0000819a0000819a0000819a0000819a0000819a0000819a0000819a0000819a
008000000080000000800000008000000080000000800000008000000080000000800000008000000080000000800000008000000080000000800000008000000080000000800000008000000080000000800000008000000080000000800000008000000080000000800000008000000080000000800000008000000080000000800000008000000080000000800000008000000080000000800000008000000080000000800000008000000080000000800000008000000080000000800000008000000080000000800000008000000080000000800000008000000080000000800000008000000080000000800000008000000080000000800000008000000080000000800000008000000080000000800000008000000080000000800000008000000080000000800000008000000080000000800000008000000080000000800000008000000080000000800000008000000080000000800000008000000080000000800000008000000080000000800000008000000080000000800000008000000080000000800000008000000080000000800000008000000080000000800000008000000080000000800000008000000080000000800000008000000080000000800000008000000080000000800000008000000080000000800000008000000080000000800000008000000080000000800000008000000080000000800000008000000080000000800000008000000080000000800000008000000080000000800000008000000080000000800000008000000080000000800000008000000080000000800000008000000080000000800000008000000080000000800000008000000080000000800000008000000080000000800000008000000000ecaa0000ecaa0000ecaa0000ecaa0000ecaa0000ecaa0000ecaa0000ecaa0000ecaa0000ecaa0000ecaa0000ecaa0000ecaa0000ecaa0000ecaa0000ecaa0000ecaa0000ecaa0000ecaa0000ecaa0000ecaa0000ecaa0000ecaa0000ecaa0000ecaa0000ecaa0000ecaa0000ecaa0000ecaa0000ecaa0000ecaa0000ecaa0000ecaa0000ecaa0000ecaa0000ecaa0000ecaa0000ecaa0000ecaa0000ecaa0000ecaa0000ecaa0000ecaa0000ecaa0000ecaa0000ecaa0000ecaa0000ecaa0000ecaa0000ecaa0000ecaa0000ecaa0000ecaa0000ecaa0000ecaa0000ecaa0000ecaa0000ecaa0000ecaa0000ecaa0000ecaa0000ecaa0000ecaa0000ecaa0000ecaa0000ecaa0000ecaa0000ecaa0000ecaa0000ecaa0000ecaa0000ecaa0000ecaa0000ecaa0000ecaa0000ecaa0000ecaa0000ecaa0000ecaa0000ecaa0000ecaa0000ecaa0000ecaa0000ecaa0000ecaa0000ecaa0000ecaa0000ecaa0000ecaa0000ecaa0000ecaa0000ecaa0000ecaa0000ecaa0000ecaa0000ecaa
00008352000083520000835200008352000083520000835200008352000083520000835200008352000083520000835200008352000083520000835200008352000083520000835200008352000083520000835200008352000083520000835200008352000083520000835200008352000083520000835200008352000083520000835200008352000083520000835200008352000083520000835200008352000083520000835200008352000083520000835200008352000083520000835200008352000083520000835200008352000083520000835200008352000083520000835200008352000083520000835200008352000083520000835200008352000083520000835200008352000083520000835200008352000083520000835200008352000083520000835200008352000083520000835200008352000083520000835200008352000083520000835200008352000083520000835200008352000083520000835200008352000083520000835200008352000083520000835200008352000083520000835200008352000083520000835200008352000083520000835200008352000083520000835200008352000083520000835200008352000083520000835200008352000083520000835200008352000083520000835200008352000083520000835200008352000083520000835200008352000083520000835200008352000083520000835200008352000083520000835200008352000083520000835200008352000083520000835200008352000083520000835200008352000083520000835200008352000083520000835200008352000083520000835200008352000083520000835200008352000083520000835200008352000083520000835200008352000083520000835200008352000083520000835200008352000083520000835200008352000083520000835200008352000083520000835200008352000083520000835200008352000083520000835200008352000083520000835200008352000083520000835200008352000083520000835200008352000083520000835200008352000083520000835200008352000083520000835200008352000083520000835200008352000083520000835200008352000083520000835200008352000083520000835200008352000083520000835200008352000083520000835200008352000083520000835200008352000083520000835200008352000083520000835200008352000083520000835200008352000083520000835200008352000083520000835200008352000083520000835200008352000083520000835200008352000083520000835200008352000083520000835200008352000083520000835200008352000083520000835200008352
00008352000083520000835200008352000083520000835200008352000083520000835200008352000083520000835200008352000083520000835200008352000083520000835200008352000083520000835200008352000083520000835200008352000083520000835200008352000083520000835200008352000083520000835200008352000083520000835200008352000083520000835200008352000083520000835200008352000083520000835200008352000083520000835200008352000083520000835200008352000083520000835200008352000083520000835200008352000083520000835200008352000083520000835200008352000083520000835200008352000083520000835200008352000083520000835200008352000083520000835200008352000083520000835200008352000083520000835200008352000083520000835200008352000083520000835200008352000083520000835200008352000083520000835200008352000083520000835200008352000083520000835200008352000083520000835200008352000083520000835200008352000083520000835200008352000083520000835200008352000083520000835200008352000083520000835200008352000083520000835200008352000083520000835200008352000083520000835200008352000083520000835200008352000083520000835200008352000083520000835200008352000083520000835200008352000083520000835200008352000083520000835200008352000083520000835200008352000083520000835200008352000083520000835200008352000083520000835200008352000083520000835200008352000083520000835200008352000083520000835200008352000083520000835200008352000083520000835200008352000083520000835200008352000083520000835200008352000083520000835200008352000083520000835200008352000083520000835200008352000083520000835200008352000083520000835200008352000083520000835200008352000083520000835200008352000083520000835200008352000083520000835200008352000083520000835200008352000083520000835200008352000083520000835200008352000083520000835200008352000083520000835200008352000083520000835200008352000083520000835200008352000083520000835200008352000083520000835200008352000083520000835200008352000083520000835200008352000083520000835200008352000083520000835200008352000083520000835200008352000083520000835200008352000083520000835200008352000083520000835200008352
00800000008000000080000000800000008000000080000000800000008000000080000000800000008000000080000000800000008000000080000000800000008000000080000000800000008000000080000000800000008000000080000000800000008000000080000000800000008000000080000000800000008000000080000000800000008000000080000000800000008000000080000000800000008000000080000000800000008000000080000000800000008000000080000000800000008000000080000000800000008000000080000000800000008000000080000000800000008000000080000000800000008000000080000000800000008000000080000000800000008000000080000000800000008000000080000000800000008000000080000000800000008000000080000000800000008000000080000000800000008000000080000000800000008000000080000000800000008000000080000000800000008000000080000000800000008000000080000000800000008000000080000000800000008000000080000000800000008000000080000000800000008000000080000000800000008000000080000000800000008000000080000000800000008000000080000000800000008000000080000000800000008000000080000000800000008000000080000000800000008000000080000000800000008000000080000000800000008000000080000000800000008000000080000000800000008000000080000000800000008000000080000000800000008000000080000000800000008000000080000000800000008000000080000000800000008000000080000000800000008000000080000000800000008000000080000000800000008000000080000000800000008000000080000000800000008000000080000000800000008000000080000000800000008000000080000000800000008000000080000000800000008000000080000000800000008000000080000000800000008000000080000000800000008000000080000000008352000083520000835200008352000083520000835200008352000083520000835200008352000083520000835200008352000083520000835200008352000083520000835200008352000083520000835200008352000083520000835200008352000083520000835200008352000083520000835200008352000083520000835200008352000083520000835200008352000083520000835200008352000083520000835200008352000083520000835200008352000083520000835200008352000083520000835200008352000083520000835200008352000083520000835200008352000083520000835200008352000083520000835200008352
00800000008000000080000000800000008000000080000000800000008000000080000000800000008000000080000000800000008000000080000000800000008000000080000000800000008000000080000000800000008000000080000000800000008000000080000000800000008000000080000000800000008000000080000000800000008000000080000000800000008000000080000000800000008000000080000000800000008000000080000000800000008000000080000000800000008000000080000000800000008000000080000000800000008000000080000000800000008000000080000000800000008000000080000000800000008000000080000000800000008000000080000000800000008000000080000000800000008000000080000000800000008000000080000000800000008000000080000000800000008000000080000000800000008000000080000000800000008000000080000000800000008000000080000000800000008000000080000000800000008000000080000000800000008000000080000000800000008000000080000000800000008000000080000000800000008000000080000000800000008000000080000000800000008000000080000000800000008000000080000000800000008000000080000000800000008000000080000000800000008000000080000000800000008000000080000000800000008000000080000000800000008000000080000000800000008000000080000000800000008000000080000000800000008000000080000000800000008000000080000000800000008000000080000000800000008000000080000000800000008000000080000000800000000113fc000113fc000113fc000113fc000113fc000113fc000113fc000113fc000113fc000113fc000113fc000113fc000113fc000113fc000113fc000113fc000113fc000113fc000113fc000113fc000113fc000113fc000113fc000113fc000113fc000113fc000113fc000113fc000113fc000113fc000113fc000113fc000113fc000113fc000113fc000113fc000113fc000113fc000113fc000113fc000113fc000113fc000113fc000113fc000113fc000113fc000113fc000113fc000113fc000113fc000113fc000113fc000113fc000113fc000113fc000113fc000113fc000113fc000113fc000113fc000113fc000113fc000113fc000113fc000113fc000113fc000113fc000113fc000113fc000113fc000113fc000113fc000113fc000113fc000113fc000113fc000113fc000113fc000113fc000113fc000113fc000113fc000113fc000113fc000113fc000113fc000113fc000113fc000113fc000113fc000113fc000113fc000113fc000113fc000113fc000113fc
00008b8000008b8000008b8000008b8000008b8000008b8000008b8000008b8000008b8000008b8000008b8000008b8000008b8000008b8000008b8000008b8000008b8000008b8000008b8000008b8000008b8000008b8000008b8000008b8000008b8000008b8000008b8000008b8000008b8000008b8000008b8000008b8000008b8000008b8000008b8000008b8000008b8000008b8000008b8000008b8000008b8000008b8000008b8000008b8000008b8000008b8000008b8000008b8000008b8000008b8000008b8000008b8000008b8000008b8000008b8000008b8000008b8000008b8000008b8000008b8000008b8000008b8000008b8000008b8000008b8000008b8000008b8000008b8000008b8000008b8000008b8000008b8000008b8000008b8000008b8000008b8000008b8000008b8000008b8000008b8000008b8000008b8000008b8000008b8000008b8000008b8000008b8000008b8000008b8000008b8000008b8000008b8000008b8000008b8000008b8000008b8000008b8000008b8000008b8000008b8000008b8000008b8000008b8000008b8000008b8000008b8000008b8000008b8000008b8000008b8000008b8000008b8000008b8000008b8000008b8000008b8000008b8000008b8000008b8000008b8000008b8000008b8000008b8000008b8000008b8000008b8000008b8000008b8000008b8000008b8000008b8000008b8000008b8000008b8000008b8000008b8000008b8000008b8000008b8000008b8000008b8000008b8000008b8000008b8000008b8000008b8000008b8000008b8000008b8000008b8000008b8000008b8000008b8000008b8000008b8000008b8000008b8000008b8000008b8000008b8000008b8000008b8000008b8000008b8000008b8000008b8000008b8000008b8000008b8000008b8000008b8000008b8000008b8000008b8000008b8000008b8000008b8000008b8000008b8000008b8000008b8000008b8000008b8000008b8000008b8000008b8000008b8000008b8000008b8000008b8000008b8000008b8000008b8000008b8000008b8000008b8000008b8000008b8000008b8000008b8000008b8000008b8000008b8000008b8000008b8000008b8000008b8000008b8000008b8000008b8000008b8000008b8000008b8000008b8000008b8000008b8000008b8000008b8000008b8000008b8000008b8000008b8000008b8000008b8000008b8000008b8000008b8000008b8000008b8000008b8000008b8000008b8000008b8000008b8000008b8000008b8000008b8000008b8000008b8000008b8000008b8000008b8000008b8000008b8000008b8000008b8000008b8000008b8000008b8000008b8000008b8000008b8000008b8000008b8000008b8000008b80
00008b8000008b8000008b8000008b8000008b8000008b8000008b8000008b8000008b8000008b8000008b8000008b8000008b8000008b8000008b8000008b8000008b8000008b8000008b8000008b8000008b8000008b8000008b8000008b8000008b8000008b8000008b8000008b8000008b8000008b8000008b8000008b8000008b8000008b8000008b8000008b8000008b8000008b8000008b8000008b8000008b8000008b8000008b8000008b8000008b8000008b8000008b8000008b8000008b8000008b8000008b8000008b8000008b8000008b8000008b8000008b8000008b8000008b8000008b8000008b8000008b8000008b8000008b8000008b8000008b8000008b8000008b8000008b8000008b8000008b8000008b8000008b8000008b8000008b8000008b8000008b8000008b8000008b8000008b8000008b8000008b8000008b8000008b8000008b8000008b8000008b8000008b8000008b8000008b8000008b8000008b8000008b8000008b8000008b8000008b8000008b8000008b8000008b8000008b8000008b8000008b8000008b8000008b8000008b8000008b8000008b8000008b8000008b8000008b8000008b8000008b8000008b8000008b8000008b8000008b8000008b8000008b8000008b8000008b8000008b8000008b8000008b8000008b8000008b8000008b8000008b8000008b8000008b8000008b8000008b8000008b8000008b8000008b8000008b8000008b8000008b8000008b8000008b8000008b8000008b8000008b8000008b8000008b8000008b8000008b8000008b8000008b8000008b8000008b8000008b8000008b8000008b8000008b8000008b8000008b8000008b8000008b8000008b8000008b8000008b8000008b8000008b8000008b8000008b8000008b8000008b8000008b8000008b8000008b8000008b8000008b8000008b8000008b8000008b8000008b8000008b8000008b8000008b8000008b8000008b8000008b8000008b8000008b8000008b8000008b8000008b8000008b8000008b8000008b8000008b8000008b8000008b8000008b8000008b8000008b8000008b8000008b8000008b8000008b8000008b8000008b8000008b8000008b8000008b8000008b8000008b8000008b8000008b8000008b8000008b8000008b8000008b8000008b8000008b8000008b8000008b8000008b8000008b8000008b8000008b8000008b8000008b8000008b8000008b8000008b8000008b8000008b8000008b8000008b8000008b8000008b8000008b8000008b8000008b8000008b8000008b8000008b8000008b8000008b8000008b8000008b8000008b8000008b8000008b8000008b8000008b8000008b8000008b8000008b8000008b8000008b8000008b8000008b8000008b8000008b8000008b80
00800000008000000080000000800000008000000080000000800000008000000080000000800000008000000080000000800000008000000080000000800000008000000080000000800000008000000080000000800000008000000080000000800000008000000080000000800000008000000080000000800000008000000080000000800000008000000080000000800000008000000080000000800000008000000080000000800000008000000080000000800000008000000080000000800000008000000080000000800000008000000080000000800000008000000080000000800000008000000080000000800000008000000080000000800000008000000080000000800000008000000080000000800000008000000080000000800000008000000080000000800000008000000080000000800000008000000080000000800000008000000080000000800000008000000080000000800000008000000080000000800000008000000080000000800000008000000080000000800000008000000080000000800000008000000080000000800000008000000080000000800000008000000080000000800000008000000080000000800000008000000080000000800000008000000080000000800000008000000080000000800000008000000080000000800000008000000080000000800000008000000080000000800000008000000080000000800000008000000080000000800000008000000080000000800000008000000080000000800000008000000080000000800000008000000080000000800000008000000080000000800000008000000080000000800000008000000080000000800000008000000080000000800000008000000080000000800000008000000080000000800000008000000080000000800000008000000080000000800000008000000080000000800000008000000080000000800000008000000080000000800000008000000080000000800000008000000080000000800000008000000080000000800000008000000080000000008b8000008b8000008b8000008b8000008b8000008b8000008b8000008b8000008b8000008b8000008b8000008b8000008b8000008b8000008b8000008b8000008b8000008b8000008b8000008b8000008b8000008b8000008b8000008b8000008b8000008b8000008b8000008b8000008b8000008b8000008b8000008b8000008b8000008b8000008b8000008b8000008b8000008b8000008b8000008b8000008b8000008b8000008b8000008b8000008b8000008b8000008b8000008b8000008b8000008b8000008b8000008b8000008b8000008b8000008b8000008b8000008b8000008b8000008b8000008b8000008b8000008b8000008b8000008b80
008000000080000000800000008000000080000000800000008000000080000000800000008000000080000000800000008000000080000000800000008000000080000000800000008000000080000000800000008000000080000000800000008000000080000000800000008000000080000000800000008000000080000000800000008000000080000000800000008000000080000000800000008000000080000000800000008000000080000000800000008000000080000000800000008000000080000000800000008000000080000000800000008000000080000000800000008000000080000000800000008000000080000000800000008000000080000000800000008000000080000000800000008000000080000000800000008000000080000000800000008000000080000000800000008000000080000000800000008000000080000000800000008000000080000000800000008000000080000000800000008000000080000000800000008000000080000000800000000092a6000092a6000092a6000092a6000092a6000092a6000092a6000092a6000092a6000092a6000092a6000092a6000092a6000092a6000092a6000092a6000092a6000092a6000092a6000092a6000092a6000092a6000092a6000092a6000092a6000092a6000092a6000092a6000092a6000092a6000092a6000092a6000092a6000092a6000092a6000092a6000092a6000092a6000092a6000092a6000092a6000092a6000092a6000092a6000092a6000092a6000092a6000092a6000092a6000092a6000092a6000092a6000092a6000092a6000092a6000092a6000092a6000092a6000092a6000092a6000092a6000092a6000092a6000092a6000092a6000092a6000092a6000092a6000092a6000092a6000092a6000092a6000092a6000092a6000092a6000092a6000092a6000092a6000092a6000092a6000092a6000092a6000092a6000092a6000092a6000092a6000092a6000092a6000092a6000092a6000092a6000092a6000092a6000092a6000092a6000092a6000092a6000092a6000092a6000092a6000092a6000092a6000092a6000092a6000092a6000092a6000092a6000092a6000092a6000092a6000092a6000092a6000092a6000092a6000092a6000092a6000092a6000092a6000092a6000092a6000092a6000092a6000092a6000092a6000092a6000092a6000092a6000092a6000092a6000092a6000092a6000092a6000092a6000092a6000092a6000092a6000092a6000092a6000092a6000092a6000092a6000092a6000092a6000092a6000092a6000092a6000092a6000092a6000092a6000092a6000092a6000092a6000092a6000092a6000092a6000092a6000092a6000092a6000092a6000092a6
000092ba000092ba000092ba000092ba000092ba000092ba000092ba000092ba000092ba000092ba000092ba000092ba000092ba000092ba000092ba000092ba000092ba000092ba000092ba000092ba000092ba000092ba000092ba000092ba000092ba000092ba000092ba000092ba000092ba000092ba000092ba000092ba000092ba000092ba000092ba000092ba000092ba000092ba000092ba000092ba000092ba000092ba000092ba000092ba000092ba000092ba000092ba000092ba000092ba000092ba000092ba000092ba000092ba000092ba000092ba000092ba000092ba000092ba000092ba000092ba000092ba000092ba000092ba000092ba000092ba000092ba000092ba000092ba000092ba000092ba000092ba000092ba000092ba000092ba000092ba000092ba000092ba000092ba000092ba000092ba000092ba000092ba000092ba000092ba000092ba000092ba000092ba000092ba000092ba000092ba000092ba000092ba000092ba000092ba000092ba000092ba000092ba000092ba000092ba000092ba000092ba000092ba000092ba000092ba000092ba000092ba000092ba000092ba000092ba000092ba000092ba000092ba000092ba000092ba000092ba000092ba000092ba000092ba000092ba000092ba000092ba000092ba000092ba000092ba000092ba000092ba000092ba000092ba000092ba000092ba000092ba000092ba000092ba000092ba000092ba000092ba000092ba000092ba000092ba000092ba000092ba000092ba000092ba000092ba000092ba000092ba000092ba000092ba000092ba000092ba000092ba000092ba000092ba000092ba000092ba000092ba000092ba000092ba000092ba000092ba000092ba000092ba000092ba000092ba000092ba000092ba000092ba000092ba000092ba000092ba000092ba000092ba000092ba000092ba000092ba000092ba000092ba000092ba000092ba000092ba000092ba000092ba000092ba000092ba000092ba000092ba000092ba000092ba000092ba000092ba000092ba000092ba000092ba000092ba000092ba000092ba000092ba000092ba000092ba000092ba000092ba000092ba000092ba000092ba000092ba000092ba000092ba000092ba000092ba000092ba000092ba000092ba000092ba000092ba000092ba000092ba000092ba000092ba000092ba000092ba000092ba000092ba000092ba000092ba000092ba000092ba000092ba000092ba000092ba000092ba000092ba000092ba000092ba000092ba000092ba000092ba000092ba000092ba000092ba000092ba000092ba000092ba000092ba000092ba000092ba000092ba000092ba000092ba000092ba000092ba000092ba000092ba000092ba000092ba000092ba000092ba
000092ba000092ba000092ba000092ba000092ba000092ba000092ba000092ba000092ba000092ba000092ba000092ba000092ba000092ba000092ba000092ba000092ba000092ba000092ba000092ba000092ba000092ba000092ba000092ba000092ba000092ba000092ba000092ba000092ba000092ba000092ba000092ba000092ba000092ba000092ba000092ba000092ba000092ba000092ba000092ba000092ba000092ba000092ba000092ba000092ba000092ba000092ba000092ba000092ba000092ba000092ba000092ba000092ba000092ba000092ba000092ba000092ba000092ba000092ba000092ba000092ba000092ba000092ba000092ba000092ba000092ba000092ba000092ba000092ba000092ba000092ba000092ba000092ba000092ba000092ba000092ba000092ba000092ba000092ba000092ba000092ba000092ba000092ba000092ba000092ba000092ba000092ba000092ba000092ba000092ba000092ba000092ba000092ba000092ba000092ba000092ba000092ba000092ba000092ba000092ba000092ba000092ba000092ba000092ba000092ba000092ba000092ba000092ba000092ba000092ba000092ba000092ba000092ba000092ba000092ba000092ba000092ba000092ba000092ba000092ba000092ba000092ba000092ba000092ba000092ba000092ba000092ba000092ba000092ba000092ba000092ba000092ba000092ba000092ba000092ba000092ba000092ba000092ba000092ba000092ba000092ba000092ba000092ba000092ba000092ba000092ba000092ba000092ba000092ba000092ba000092ba000092ba000092ba000092ba000092ba000092ba000092ba000092ba000092ba000092ba000092ba000092ba000092ba000092ba000092ba000092ba000092ba000092ba000092ba000092ba000092ba000092ba000092ba000092ba000092ba000092ba000092ba000092ba000092ba000092ba000092ba000092ba000092ba000092ba000092ba000092ba000092ba000092ba000092ba000092ba000092ba000092ba000092ba000092ba000092ba000092ba000092ba000092ba000092ba000092ba000092ba000092ba000092ba000092ba000092ba000092ba000092ba000092ba000092ba000092ba000092ba000092ba000092ba000092ba000092ba000092ba000092ba000092ba000092ba000092ba000092ba000092ba000092ba000092ba000092ba000092ba000092ba000092ba000092ba000092ba000092ba000092ba000092ba000092ba000092ba000092ba000092ba000092ba000092ba000092ba000092ba000092ba000092ba000092ba000092ba000092ba000092ba000092ba000092ba000092ba000092ba000092ba000092ba000092ba000092ba000092ba
000092ba000092ba000092ba000092ba000092ba000092ba000092ba000092ba000092ba000092ba000092ba000092ba000092ba000092ba000092ba000092ba000092ba000092ba000092ba000092ba000092ba000092ba000092ba000092ba000092ba000092ba000092ba000092ba000092ba000092ba000092ba000092ba000092ba000092ba000092ba000092ba000092ba000092ba000092ba000092ba000092ba000092ba000092ba000092ba000092ba000092ba000092ba000092ba000092ba000092ba000092ba000092ba000092ba000092ba000092ba000092ba000092ba000092ba000092ba000092ba000092ba000092ba000092ba000092ba000092ba000092ba000092ba000092ba000092ba000092ba000092ba000092ba000092ba000092ba000092ba000092ba000092ba000092ba000092ba000092ba000092ba000092ba000092ba000092ba000092ba000092ba000092ba000092ba000092ba000092ba000092ba000092ba000092ba000092ba000092ba000092ba000092ba000092ba000092ba000092ba000092ba000092ba000092ba000092ba000092ba000092ba000092ba000092ba000092ba000092ba000092ba000092ba000092ba000092ba000092ba000092ba000092ba000092ba000092ba000092ba000092ba000092ba000092ba000092ba000092ba000092ba000092ba000092ba000092ba000092ba000092ba000092ba000092ba000092ba000092ba000092ba000092ba000092ba000092ba000092ba000092ba000092ba000092ba000092ba000092ba000092ba000092ba000092ba000092ba000092ba000092ba000092ba000092ba000092ba000092ba000092ba000092ba000092ba000092ba000092ba000092ba000092ba000092ba000092ba000092ba000092ba000092ba000092ba000092ba000092ba000092ba000092ba000092ba000092ba000092ba000092ba000092ba000092ba000092ba000092ba000092ba000092ba000092ba000092ba000092ba000092ba000092ba000092ba000092ba000092ba000092ba000092ba000092ba000092ba000092ba000092ba000092ba000092ba000092ba000092ba000092ba000092ba000092ba000092ba000092ba000092ba000092ba000092ba000092ba000092ba000092ba000092ba000092ba000092ba000092ba000092ba000092ba000092ba000092ba000092ba000092ba000092ba000092ba000092ba000092ba000092ba000092ba000092ba000092ba000092ba000092ba000092ba000092ba000092ba000092ba000092ba000092ba000092ba000092ba000092ba000092ba000092ba000092ba000092ba000092ba000092ba000092ba000092ba000092ba000092ba000092ba000092ba000092ba000092ba000092ba000092ba
00800000008000000080000000800000008000000080000000800000008000000080000000800000008000000080000000800000008000000080000000800000008000000080000000800000008000000080000000800000008000000080000000800000008000000080000000800000008000000080000000800000008000000080000000800000008000000080000000800000008000000080000000800000008000000080000000800000008000000080000000800000008000000080000000800000008000000080000000800000008000000080000000800000008000000080000000800000008000000080000000800000008000000080000000800000000092ba000092ba000092ba000092ba000092ba000092ba000092ba000092ba000092ba000092ba000092ba000092ba000092ba000092ba000092ba000092ba000092ba000092ba000092ba000092ba000092ba000092ba000092ba000092ba000092ba000092ba000092ba000092ba000092ba000092ba000092ba000092ba000092ba000092ba000092ba000092ba000092ba000092ba000092ba000092ba000092ba000092ba000092ba000092ba000092ba000092ba000092ba000092ba000092ba000092ba000092ba000092ba000092ba000092ba000092ba000092ba000092ba000092ba000092ba000092ba000092ba000092ba000092ba000092ba000092ba000092ba000092ba000092ba000092ba000092ba000092ba000092ba000092ba000092ba000092ba000092ba000092ba000092ba000092ba000092ba000092ba000092ba000092ba000092ba000092ba000092ba000092ba000092ba000092ba000092ba000092ba000092ba000092ba000092ba000092ba000092ba000092ba000092ba000092ba000092ba000092ba000092ba000092ba000092ba000092ba000092ba000092ba000092ba000092ba000092ba000092ba000092ba000092ba000092ba000092ba000092ba000092ba000092ba000092ba000092ba000092ba000092ba000092ba000092ba000092ba000092ba000092ba000092ba000092ba000092ba000092ba000092ba000092ba000092ba000092ba000092ba000092ba000092ba000092ba000092ba000092ba000092ba000092ba000092ba000092ba000092ba000092ba000092ba000092ba000092ba000092ba000092ba000092ba000092ba000092ba000092ba000092ba000092ba000092ba000092ba000092ba000092ba000092ba000092ba000092ba000092ba000092ba000092ba000092ba000092ba000092ba000092ba000092ba000092ba000092ba000092ba000092ba000092ba000092ba000092ba000092ba000092ba000092ba000092ba000092ba000092ba000092ba000092ba000092ba000092ba000092ba000092ba
00800000008000000080000000800000008000000080000000800000008000000080000000800000008000000080000000800000008000000080000000800000008000000080000000800000008000000080000000800000008000000080000000800000008000000080000000800000008000000080000000800000008000000080000000800000008000000080000000800000008000000080000000800000008000000080000000800000008000000080000000800000008000000080000000800000008000000080000000800000008000000080000000800000008000000080000000800000008000000080000000800000008000000080000000800000008000000080000000800000008000000080000000800000008000000080000000800000008000000080000000800000008000000080000000800000008000000080000000800000008000000080000000800000008000000080000000800000008000000080000000800000008000000080000000800000008000000080000000010bf000010bf000010bf000010bf000010bf000010bf000010bf000010bf000010bf000010bf000010bf000010bf000010bf000010bf000010bf000010bf000010bf000010bf000010bf000010bf000010bf000010bf000010bf000010bf000010bf000010bf000010bf000010bf000010bf000010bf000010bf000010bf000010bf000010bf000010bf000010bf000010bf000010bf000010bf000010bf000010bf000010bf000010bf000010bf000010bf000010bf000010bf000010bf000010bf000010bf000010bf000010bf000010bf000010bf000010bf000010bf000010bf000010bf000010bf000010bf000010bf000010bf000010bf000010bf000010bf000010bf000010bf000010bf000010bf000010bf000010bf000010bf000010bf000010bf000010bf000010bf000010bf000010bf000010bf000010bf000010bf000010bf000010bf000010bf000010bf000010bf000010bf000010bf000010bf000010bf000010bf000010bf000010bf000010bf000010bf000010bf000010bf000010bf000010bf000010bf000010bf000010bf000010bf000010bf000010bf000010bf000010bf000010bf000010bf000010bf000010bf000010bf000010bf000010bf000010bf000010bf000010bf000010bf000010bf000010bf000010bf000010bf000010bf000010bf000010bf000010bf000010bf000010bf000010bf000010bf000010bf000010bf000010bf000010bf000010bf000010bf000010bf000010bf000010bf000010bf000010bf000010bf000010bf000010bf000010bf000010bf000010bf000010bf000010bf000010bf000010bf000010bf000010bf000010bf000010bf000010bf000010bf000010bf000010bf000010bf0
0000807e0000807e0000807e0000807e0000807e0000807e0000807e0000807e0000807e0000807e0000807e0000807e0000807e0000807e0000807e0000807e0000807e0000807e0000807e0000807e0000807e0000807e0000807e0000807e0000807e0000807e0000807e0000807e0000807e0000807e0000807e0000807e0000807e0000807e0000807e0000807e0000807e0000807e0000807e0000807e0000807e0000807e0000807e0000807e0000807e0000807e0000807e0000807e0000807e0000807e0000807e0000807e0000807e0000807e0000807e0000807e0000807e0000807e0000807e0000807e0000807e0000807e0000807e0000807e0000807e0000807e0000807e0000807e0000807e0000807e0000807e0000807e0000807e0000807e0000807e0000807e0000807e0000807e0000807e0000807e0000807e0000807e0000807e0000807e0000807e0000807e0000807e0000807e0000807e0000807e0000807e0000807e0000807e0000807e0000807e0000807e0000807e0000807e0000807e0000807e0000807e0000807e0000807e0000807e0000807e0000807e0000807e0000807e0000807e0000807e0000807e0000807e0000807e0000807e0000807e0000807e0000807e0000807e0000807e0000807e0000807e0000807e0000807e0000807e0000807e0000807e0000807e0000807e0000807e0000807e0000807e0000807e0000807e0000807e0000807e0000807e0000807e0000807e0000807e0000807e0000807e0000807e0000807e0000807e0000807e0000807e0000807e0000807e0000807e0000807e0000807e0000807e0000807e0000807e0000807e0000807e0000807e0000807e0000807e0000807e0000807e0000807e0000807e0000807e0000807e0000807e0000807e0000807e0000807e0000807e0000807e0000807e0000807e0000807e0000807e0000807e0000807e0000807e0000807e0000807e0000807e0000807e0000807e0000807e0000807e0000807e0000807e0000807e0000807e0000807e0000807e0000807e0000807e0000807e0000807e0000807e0000807e0000807e0000807e0000807e0000807e0000807e0000807e0000807e0000807e0000807e0000807e0000807e0000807e0000807e0000807e0000807e0000807e0000807e0000807e0000807e0000807e0000807e0000807e0000807e0000807e0000807e0000807e0000807e0000807e0000807e0000807e0000807e0000807e0000807e0000807e0000807e0000807e0000807e0000807e0000807e0000807e0000807e0000807e0000807e0000807e0000807e0000807e0000807e0000807e0000807e0000807e0000807e0000807e0000807e0000807e0000807e0000807e0000807e0000807e0000807e
0000807e0000807e0000807e0000807e0000807e0000807e0000807e0000807e0000807e0000807e0000807e0000807e0000807e0000807e0000807e0000807e0000807e0000807e0000807e0000807e0000807e0000807e0000807e0000807e0000807e0000807e0000807e0000807e0000807e0000807e0000807e0000807e0000807e0000807e0000807e0000807e0000807e0000807e0000807e0000807e0000807e0000807e0000807e0000807e0000807e0000807e0000807e0000807e0000807e0000807e0000807e0000807e0000807e0000807e0000807e0000807e0000807e0000807e0000807e0000807e0000807e0000807e0000807e0000807e0000807e0000807e0000807e0000807e0000807e0000807e0000807e0000807e0000807e0000807e0000807e0000807e0000807e0000807e0000807e0000807e0000807e0000807e0000807e0000807e0000807e0000807e0000807e0000807e0000807e0000807e0000807e0000807e0000807e0000807e0000807e0000807e0000807e0000807e0000807e0000807e0000807e0000807e0000807e0000807e0000807e0000807e0000807e0000807e0000807e0000807e0000807e0000807e0000807e0000807e0000807e0000807e0000807e0000807e0000807e0000807e0000807e0000807e0000807e0000807e0000807e0000807e0000807e0000807e0000807e0000807e0000807e0000807e0000807e0000807e0000807e0000807e0000807e0000807e0000807e0000807e0000807e0000807e0000807e0000807e0000807e0000807e0000807e0000807e0000807e0000807e0000807e0000807e0000807e0000807e0000807e0000807e0000807e0000807e0000807e0000807e0000807e0000807e0000807e0000807e0000807e0000807e0000807e0000807e0000807e0000807e0000807e0000807e0000807e0000807e0000807e0000807e0000807e0000807e0000807e0000807e0000807e0000807e0000807e0000807e0000807e0000807e0000807e0000807e0000807e0000807e0000807e0000807e0000807e0000807e0000807e0000807e0000807e0000807e0000807e0000807e0000807e0000807e0000807e0000807e0000807e0000807e0000807e0000807e0000807e0000807e0000807e0000807e0000807e0000807e0000807e0000807e0000807e0000807e0000807e0000807e0000807e0000807e0000807e0000807e0000807e0000807e0000807e0000807e0000807e0000807e0000807e0000807e0000807e0000807e0000807e0000807e0000807e0000807e0000807e0000807e0000807e0000807e0000807e0000807e0000807e0000807e0000807e0000807e0000807e0000807e0000807e0000807e0000807e0000807e0000807e0000807e
0000807e0000807e0000807e0000807e0000807e0000807e0000807e0000807e0000807e0000807e0000807e0000807e0000807e0000807e0000807e0000807e0000807e0000807e0000807e0000807e0000807e0000807e0000807e0000807e0000807e0000807e0000807e0000807e0000807e0000807e0000807e0000807e0000807e0000807e0000807e0000807e0000807e0000807e0000807e0000807e0000807e0000807e0000807e0000807e0000807e0000807e0000807e0000807e0000807e0000807e0000807e0000807e0000807e0000807e0000807e0000807e0000807e0000807e0000807e0000807e0000807e0000807e0000807e0000807e0000807e0000807e0000807e0000807e0000807e0000807e0000807e0000807e0000807e0000807e0000807e0000807e0000807e0000807e0000807e0000807e0000807e0000807e0000807e0000807e0000807e0000807e0000807e0000807e0000807e0000807e0000807e0000807e0000807e0000807e0000807e0000807e0000807e0000807e0000807e0000807e0000807e0000807e0000807e0000807e0000807e0000807e0000807e0000807e0000807e0000807e0000807e0000807e0000807e0000807e0000807e0000807e0000807e0000807e0000807e0000807e0000807e0000807e0000807e0000807e0000807e0000807e0000807e0000807e0000807e0000807e0000807e0000807e0000807e0000807e0000807e0000807e0000807e0000807e0000807e0000807e0000807e0000807e0000807e0000807e0000807e0000807e0000807e0000807e0000807e0000807e0000807e0000807e0000807e0000807e0000807e0000807e0000807e0000807e0000807e0000807e0000807e0000807e0000807e0000807e0000807e0000807e0000807e0000807e0000807e0000807e0000807e0000807e0000807e0000807e0000807e0000807e0000807e0000807e0000807e0000807e0000807e0000807e0000807e0000807e0000807e0000807e0000807e0000807e0000807e0000807e0000807e0000807e0000807e0000807e0000807e0000807e0000807e0000807e0000807e0000807e0000807e0000807e0000807e0000807e0000807e0000807e0000807e0000807e0000807e0000807e0000807e0000807e0000807e0000807e0000807e0000807e0000807e0000807e0000807e0000807e0000807e0000807e0000807e0000807e0000807e0000807e0000807e0000807e0000807e0000807e0000807e0000807e0000807e0000807e0000807e0000807e0000807e0000807e0000807e0000807e0000807e0000807e0000807e0000807e0000807e0000807e0000807e0000807e0000807e0000807e0000807e0000807e0000807e0000807e0000807e0000807e
008000000080000000800000008000000080000000800000008000000080000000800000008000000080000000800000008000000080000000800000008000000080000000800000008000000080000000800000008000000080000000800000008000000080000000800000008000000080000000800000008000000080000000800000008000000080000000800000008000000080000000800000008000000080000000800000008000000080000000800000008000000080000000800000008000000080000000800000008000000080000000800000008000000080000000800000008000000080000000800000008000000080000000800000008000000000807e0000807e0000807e0000807e0000807e0000807e0000807e0000807e0000807e0000807e0000807e0000807e0000807e0000807e0000807e0000807e0000807e0000807e0000807e0000807e0000807e0000807e0000807e0000807e0000807e0000807e0000807e0000807e0000807e0000807e0000807e0000807e0000807e0000807e0000807e0000807e0000807e0000807e0000807e0000807e0000807e0000807e0000807e0000807e0000807e0000807e0000807e0000807e0000807e0000807e0000807e0000807e0000807e0000807e0000807e0000807e0000807e0000807e0000807e0000807e0000807e0000807e0000807e0000807e0000807e0000807e0000807e0000807e0000807e0000807e0000807e0000807e0000807e0000807e0000807e0000807e0000807e0000807e0000807e0000807e0000807e0000807e0000807e0000807e0000807e0000807e0000807e0000807e0000807e0000807e0000807e0000807e0000807e0000807e0000807e0000807e0000807e0000807e0000807e0000807e0000807e0000807e0000807e0000807e0000807e0000807e0000807e0000807e0000807e0000807e0000807e0000807e0000807e0000807e0000807e0000807e0000807e0000807e0000807e0000807e0000807e0000807e0000807e0000807e0000807e0000807e0000807e0000807e0000807e0000807e0000807e0000807e0000807e0000807e0000807e0000807e0000807e0000807e0000807e0000807e0000807e0000807e0000807e0000807e0000807e0000807e0000807e0000807e0000807e0000807e0000807e0000807e0000807e0000807e0000807e0000807e0000807e0000807e0000807e0000807e0000807e0000807e0000807e0000807e0000807e0000807e0000807e0000807e0000807e0000807e0000807e0000807e0000807e0000807e0000807e0000807e0000807e0000807e0000807e0000807e0000807e0000807e0000807e0000807e0000807e0000807e0000807e0000807e0000807e0000807e0000807e0000807e
008000000080000000800000008000000080000000800000008000000080000000800000008000000080000000800000008000000080000000800000008000000080000000800000008000000080000000800000008000000080000000800000008000000080000000800000008000000080000000800000008000000080000000800000008000000080000000800000008000000080000000800000008000000080000000800000008000000080000000800000008000000080000000800000008000000080000000800000008000000080000000800000008000000080000000800000008000000080000000800000008000000080000000800000008000000080000000800000008000000080000000800000008000000080000000800000008000000080000000800000008000000080000000800000008000000080000000800000008000000080000000800000008000000080000000800000008000000080000000800000008000000080000000800000008000000080000000800000000134dc000134dc000134dc000134dc000134dc000134dc000134dc000134dc000134dc000134dc000134dc000134dc000134dc000134dc000134dc000134dc000134dc000134dc000134dc000134dc000134dc000134dc000134dc000134dc000134dc000134dc000134dc000134dc000134dc000134dc000134dc000134dc000134dc000134dc000134dc000134dc000134dc000134dc000134dc000134dc000134dc000134dc000134dc000134dc000134dc000134dc000134dc000134dc000134dc000134dc000134dc000134dc000134dc000134dc000134dc000134dc000134dc000134dc000134dc000134dc000134dc000134dc000134dc000134dc000134dc000134dc000134dc000134dc000134dc000134dc000134dc000134dc000134dc000134dc000134dc000134dc000134dc000134dc000134dc000134dc000134dc000134dc000134dc000134dc000134dc000134dc000134dc000134dc000134dc000134dc000134dc000134dc000134dc000134dc000134dc000134dc000134dc000134dc000134dc000134dc000134dc000134dc000134dc000134dc000134dc000134dc000134dc000134dc000134dc000134dc000134dc000134dc000134dc000134dc000134dc000134dc000134dc000134dc000134dc000134dc000134dc000134dc000134dc000134dc000134dc000134dc000134dc000134dc000134dc000134dc000134dc000134dc000134dc000134dc000134dc000134dc000134dc000134dc000134dc000134dc000134dc000134dc000134dc000134dc000134dc000134dc000134dc000134dc000134dc000134dc000134dc000134dc000134dc000134dc000134dc000134dc000134dc000134dc000134dc000134dc
0000c77c0000c77c0000c77c0000c77c0000c77c0000c77c0000c77c0000c77c0000c77c0000c77c0000c77c0000c77c0000c77c0000c77c0000c77c0000c77c0000c77c0000c77c0000c77c0000c77c0000c77c0000c77c0000c77c0000c77c0000c77c0000c77c0000c77c0000c77c0000c77c0000c77c0000c77c0000c77c0000c77c0000c77c0000c77c0000c77c0000c77c0000c77c0000c77c0000c77c0000c77c0000c77c0000c77c0000c77c0000c77c0000c77c0000c77c0000c77c0000c77c0000c77c0000c77c0000c77c0000c77c0000c77c0000c77c0000c77c0000c77c0000c77c0000c77c0000c77c0000c77c0000c77c0000c77c0000c77c0000c77c0000c77c0000c77c0000c77c0000c77c0000c77c0000c77c0000c77c0000c77c0000c77c0000c77c0000c77c0000c77c0000c77c0000c77c0000c77c0000c77c0000c77c0000c77c0000c77c0000c77c0000c77c0000c77c0000c77c0000c77c0000c77c0000c77c0000c77c0000c77c0000c77c0000c77c0000c77c0000c77c0000c77c0000c77c0000c77c0000c77c0000c77c0000c77c0000c77c0000c77c0000c77c0000c77c0000c77c0000c77c0000c77c0000c77c0000c77c0000c77c0000c77c0000c77c0000c77c0000c77c0000c77c0000c77c0000c77c0000c77c0000c77c0000c77c0000c77c0000c77c0000c77c0000c77c0000c77c0000c77c0000c77c0000c77c0000c77c0000c77c0000c77c0000c77c0000c77c0000c77c0000c77c0000c77c0000c77c0000c77c0000c77c0000c77c0000c77c0000c77c0000c77c0000c77c0000c77c0000c77c0000c77c0000c77c0000c77c0000c77c0000c77c0000c77c0000c77c0000c77c0000c77c0000c77c0000c77c0000c77c0000c77c0000c77c0000c77c0000c77c0000c77c0000c77c0000c77c0000c77c0000c77c0000c77c0000c77c0000c77c0000c77c0000c77c0000c77c0000c77c0000c77c0000c77c0000c77c0000c77c0000c77c0000c77c0000c77c0000c77c0000c77c0000c77c0000c77c0000c77c0000c77c0000c77c0000c77c0000c77c0000c77c0000c77c0000c77c0000c77c0000c77c0000c77c0000c77c0000c77c0000c77c0000c77c0000c77c0000c77c0000c77c0000c77c0000c77c0000c77c0000c77c0000c77c0000c77c0000c77c0000c77c0000c77c0000c77c0000c77c0000c77c0000c77c0000c77c0000c77c0000c77c0000c77c0000c77c0000c77c0000c77c0000c77c0000c77c0000c77c0000c77c0000c77c0000c77c0000c77c0000c77c0000c77c0000c77c0000c77c0000c77c0000c77c0000c77c0000c77c0000c77c0000c77c0000c77c0000c77c0000c77c0000c77c0000c77c0000c77c0000c77c0000c77c0000c77c0000c77c0000c77c0000c77c0000c77c
